/* This file is part of the OpenMV project.
 * Copyright (c) 2013-2021 Ibrahim Abdelkader <iabdalkader@openmv.io> & Kwabena W. Agyeman <kwagyeman@openmv.io>
 * This work is licensed under the MIT license, see the file LICENSE for details.
 */

#ifndef __LIBTF_H
#define __LIBTF_H

#define LIBTF_TENSOR_ARENA_ALIGNMENT 16

#ifdef __cplusplus
extern "C" {
#endif

typedef enum libtf_datatype {
    LIBTF_DATATYPE_UINT8,
    LIBTF_DATATYPE_INT8,
    LIBTF_DATATYPE_FLOAT
} libtf_datatype_t;

typedef struct libtf_parameters {
    size_t tensor_arena_size;
    size_t input_height, input_width, input_channels;
    libtf_datatype_t input_datatype;
    float input_scale;
    int input_zero_point;
    size_t output_height, output_width, output_channels;
    libtf_datatype_t output_datatype;
    float output_scale;
    int output_zero_point;
} libtf_parameters_t;

// Call this first to get the model parameters.
// Returns 0 on success and 1 on failure.
// Errors are printed to stdout.
int libtf_get_parameters(const unsigned char *model_data, // TensorFlow Lite binary model (8-bit quant).
                         unsigned char *tensor_arena, // As big as you can make it scratch buffer.
                         size_t tensor_arena_size, // Size of the above scratch buffer.
                         libtf_parameters_t *params); // Struct to hold model parameters.

// Callback to populate the model input data byte array (laid out in [height][width][channel] order).
typedef void (*libtf_input_data_callback_t)(void *callback_data,
                                            void *model_input,
                                            libtf_parameters_t *params);

// Callback to use the model output data byte array (laid out in [height][width][channel] order).
typedef void (*libtf_output_data_callback_t)(void *callback_data,
                                             void *model_output,
                                             libtf_parameters_t *params);

// Returns 0 on success and 1 on failure.
// Errors are printed to stdout.
int libtf_invoke(const unsigned char *model_data, // TensorFlow Lite binary model (8-bit quant).
                 unsigned char *tensor_arena, // As big as you can make it scratch buffer.
                 libtf_parameters_t *params, // Struct with model parameters.
                 libtf_input_data_callback_t input_callback, // Callback to populate the model input data byte array.
                 void *input_callback_data, // User data structure passed to input callback.
                 libtf_output_data_callback_t output_callback, // Callback to use the model output data byte array.
                 void *output_callback_data); // User data structure passed to output callback.

// Returns 0 on success and 1 on failure.
// Errors are printed to stdout.
int libtf_initialize_micro_features();

// Returns 0 on success and 1 on failure.
// Errors are printed to stdout.
// Converts audio sample data into a more compact form
// that's appropriate for feeding into a neural network.
int libtf_generate_micro_features(const int16_t *input, // Audio samples
                                  int input_size, // Audio sample size
                                  int output_size, // Slice data size
                                  int8_t *output, // Slice data
                                  size_t *num_samples_read); // Number of samples used

unsigned char g_model[] = {
  0x20, 0x00, 0x00, 0x00, 0x54, 0x46, 0x4c, 0x33, 0x00, 0x00, 0x00, 0x00,
  0x14, 0x00, 0x20, 0x00, 0x1c, 0x00, 0x18, 0x00, 0x14, 0x00, 0x10, 0x00,
  0x0c, 0x00, 0x00, 0x00, 0x08, 0x00, 0x04, 0x00, 0x14, 0x00, 0x00, 0x00,
  0x1c, 0x00, 0x00, 0x00, 0x98, 0x00, 0x00, 0x00, 0xc8, 0x00, 0x00, 0x00,
  0x8c, 0x1e, 0x00, 0x00, 0x9c, 0x1e, 0x00, 0x00, 0x64, 0x26, 0x00, 0x00,
  0x03, 0x00, 0x00, 0x00, 0x01, 0x00, 0x00, 0x00, 0x10, 0x00, 0x00, 0x00,
  0x00, 0x00, 0x0a, 0x00, 0x10, 0x00, 0x0c, 0x00, 0x08, 0x00, 0x04, 0x00,
  0x0a, 0x00, 0x00, 0x00, 0x0c, 0x00, 0x00, 0x00, 0x1c, 0x00, 0x00, 0x00,
  0x3c, 0x00, 0x00, 0x00, 0x0f, 0x00, 0x00, 0x00, 0x73, 0x65, 0x72, 0x76,
  0x69, 0x6e, 0x67, 0x5f, 0x64, 0x65, 0x66, 0x61, 0x75, 0x6c, 0x74, 0x00,
  0x01, 0x00, 0x00, 0x00, 0x04, 0x00, 0x00, 0x00, 0xb8, 0xff, 0xff, 0xff,
  0x0c, 0x00, 0x00, 0x00, 0x04, 0x00, 0x00, 0x00, 0x08, 0x00, 0x00, 0x00,
  0x64, 0x65, 0x6e, 0x73, 0x65, 0x5f, 0x36, 0x33, 0x00, 0x00, 0x00, 0x00,
  0x01, 0x00, 0x00, 0x00, 0x04, 0x00, 0x00, 0x00, 0x02, 0xf4, 0xff, 0xff,
  0x04, 0x00, 0x00, 0x00, 0x0e, 0x00, 0x00, 0x00, 0x64, 0x65, 0x6e, 0x73,
  0x65, 0x5f, 0x36, 0x30, 0x5f, 0x69, 0x6e, 0x70, 0x75, 0x74, 0x00, 0x00,
  0x01, 0x00, 0x00, 0x00, 0x0c, 0x00, 0x00, 0x00, 0x08, 0x00, 0x0c, 0x00,
  0x08, 0x00, 0x04, 0x00, 0x08, 0x00, 0x00, 0x00, 0x0e, 0x00, 0x00, 0x00,
  0x04, 0x00, 0x00, 0x00, 0x13, 0x00, 0x00, 0x00, 0x6d, 0x69, 0x6e, 0x5f,
  0x72, 0x75, 0x6e, 0x74, 0x69, 0x6d, 0x65, 0x5f, 0x76, 0x65, 0x72, 0x73,
  0x69, 0x6f, 0x6e, 0x00, 0x0f, 0x00, 0x00, 0x00, 0xc0, 0x1d, 0x00, 0x00,
  0xb8, 0x1d, 0x00, 0x00, 0xa8, 0x0b, 0x00, 0x00, 0x90, 0x09, 0x00, 0x00,
  0x80, 0x01, 0x00, 0x00, 0x30, 0x01, 0x00, 0x00, 0xa0, 0x00, 0x00, 0x00,
  0x70, 0x00, 0x00, 0x00, 0x58, 0x00, 0x00, 0x00, 0x44, 0x00, 0x00, 0x00,
  0x3c, 0x00, 0x00, 0x00, 0x34, 0x00, 0x00, 0x00, 0x2c, 0x00, 0x00, 0x00,
  0x24, 0x00, 0x00, 0x00, 0x04, 0x00, 0x00, 0x00, 0x92, 0xf4, 0xff, 0xff,
  0x04, 0x00, 0x00, 0x00, 0x10, 0x00, 0x00, 0x00, 0x31, 0x2e, 0x31, 0x34,
  0x2e, 0x30, 0x00, 0x00, 0x00, 0x00, 0x00, 0x00, 0x00, 0x00, 0x00, 0x00,
  0x1c, 0xe2, 0xff, 0xff, 0x20, 0xe2, 0xff, 0xff, 0x24, 0xe2, 0xff, 0xff,
  0x28, 0xe2, 0xff, 0xff, 0xbe, 0xf4, 0xff, 0xff, 0x04, 0x00, 0x00, 0x00,
  0x04, 0x00, 0x00, 0x00, 0xe5, 0xff, 0xff, 0xff, 0xce, 0xf4, 0xff, 0xff,
  0x04, 0x00, 0x00, 0x00, 0x08, 0x00, 0x00, 0x00, 0xfd, 0xb1, 0x32, 0x81,
  0x24, 0x8f, 0x66, 0x31, 0xe2, 0xf4, 0xff, 0xff, 0x04, 0x00, 0x00, 0x00,
  0x20, 0x00, 0x00, 0x00, 0xfb, 0xff, 0xff, 0xff, 0xe0, 0xff, 0xff, 0xff,
  0xbc, 0xff, 0xff, 0xff, 0x00, 0x00, 0x00, 0x00, 0xb6, 0xff, 0xff, 0xff,
  0xd3, 0xff, 0xff, 0xff, 0xb4, 0xff, 0xff, 0xff, 0xb9, 0xff, 0xff, 0xff,
  0x0e, 0xf5, 0xff, 0xff, 0x04, 0x00, 0x00, 0x00, 0x80, 0x00, 0x00, 0x00,
  0xdb, 0x22, 0x2c, 0xd7, 0xf0, 0xee, 0x2e, 0x1c, 0x30, 0xe8, 0xbb, 0x45,
  0xf0, 0x0b, 0x55, 0x19, 0x2a, 0x17, 0xbb, 0xf0, 0xeb, 0x04, 0x4f, 0x45,
  0xb1, 0x9a, 0x28, 0x5a, 0xa5, 0x00, 0x3c, 0xd4, 0x76, 0x76, 0xd1, 0x14,
  0x6d, 0xf4, 0x56, 0x56, 0x52, 0x62, 0x0b, 0xf8, 0xbe, 0xaf, 0x27, 0x59,
  0x28, 0xc0, 0xaa, 0x96, 0xbb, 0x9b, 0x55, 0xd0, 0xaa, 0x4c, 0x52, 0xf0,
  0x02, 0x9f, 0x20, 0xe3, 0xfe, 0x47, 0x34, 0x23, 0x36, 0x45, 0xb9, 0xf7,
  0x59, 0xfe, 0xe9, 0xee, 0x38, 0xa4, 0xfb, 0x51, 0xaa, 0x3a, 0xa6, 0x2f,
  0x2d, 0xdb, 0x96, 0xb9, 0x9f, 0xcc, 0xd2, 0xf6, 0x15, 0x60, 0xea, 0xfb,
  0x6a, 0x4d, 0x2f, 0x2f, 0x67, 0x28, 0xbe, 0xa8, 0x41, 0x46, 0x36, 0x62,
  0x7f, 0xab, 0xa9, 0x2f, 0x79, 0x60, 0xe9, 0x56, 0x1f, 0x5d, 0x63, 0x01,
  0x6b, 0xb7, 0x5b, 0x09, 0xbf, 0x5b, 0xeb, 0xe3, 0x9a, 0xf5, 0xff, 0xff,
  0x04, 0x00, 0x00, 0x00, 0x40, 0x00, 0x00, 0x00, 0x9d, 0xff, 0xff, 0xff,
  0x84, 0xff, 0xff, 0xff, 0xef, 0xff, 0xff, 0xff, 0x92, 0xff, 0xff, 0xff,
  0x92, 0xff, 0xff, 0xff, 0x8e, 0xff, 0xff, 0xff, 0xdc, 0xff, 0xff, 0xff,
  0xd6, 0xff, 0xff, 0xff, 0xae, 0xff, 0xff, 0xff, 0x04, 0x01, 0x00, 0x00,
  0x94, 0xff, 0xff, 0xff, 0xd6, 0xff, 0xff, 0xff, 0x77, 0xff, 0xff, 0xff,
  0xd4, 0xff, 0xff, 0xff, 0xd6, 0xff, 0xff, 0xff, 0xa7, 0xff, 0xff, 0xff,
  0xe6, 0xf5, 0xff, 0xff, 0x04, 0x00, 0x00, 0x00, 0x00, 0x08, 0x00, 0x00,
  0xe7, 0x05, 0x1c, 0xe7, 0x2f, 0x1b, 0xfb, 0xeb, 0x25, 0xfd, 0x19, 0x06,
  0x00, 0x0a, 0xee, 0xf4, 0xfd, 0xd9, 0x03, 0xf4, 0xfc, 0x03, 0x07, 0xff,
  0x1b, 0x13, 0x02, 0x16, 0x10, 0x7f, 0x07, 0x0e, 0xfe, 0x23, 0xeb, 0x0e,
  0x71, 0x2a, 0x25, 0xe9, 0xf6, 0x0e, 0x19, 0xfb, 0xef, 0xd4, 0x11, 0xfb,
  0x23, 0xe8, 0x19, 0x4d, 0x19, 0x58, 0x06, 0x1a, 0x20, 0xf9, 0x24, 0x28,
  0x0e, 0x17, 0xe8, 0x1a, 0x1d, 0xf2, 0x0c, 0x25, 0xfe, 0x37, 0x05, 0x3d,
  0xf2, 0x27, 0x26, 0x2a, 0xf5, 0x10, 0x1a, 0xff, 0x21, 0xee, 0x2c, 0x27,
  0xe8, 0xf7, 0xed, 0x1f, 0x1c, 0x02, 0x1c, 0xfe, 0xf7, 0x1c, 0xeb, 0xf8,
  0xfa, 0x12, 0x59, 0xf8, 0x03, 0x12, 0x02, 0x22, 0x33, 0x0b, 0x00, 0xdb,
  0x01, 0x1e, 0xec, 0x0b, 0x01, 0x29, 0x17, 0xf2, 0x0b, 0xf8, 0x18, 0x03,
  0xef, 0xef, 0x11, 0xf6, 0xf2, 0xe4, 0x17, 0xf4, 0xd3, 0x16, 0x1b, 0xe0,
  0x18, 0xf6, 0xfc, 0x2f, 0xda, 0x2b, 0x1d, 0xf5, 0x12, 0x04, 0x23, 0xf2,
  0x05, 0xec, 0x12, 0x1d, 0x0b, 0x21, 0x15, 0x00, 0x07, 0x1c, 0x19, 0x28,
  0xed, 0x76, 0xf9, 0x20, 0x28, 0x1e, 0xfa, 0x28, 0x4d, 0xf3, 0x1b, 0x26,
  0x13, 0xf5, 0xec, 0xfe, 0x1b, 0xf6, 0xe9, 0x12, 0x0f, 0x10, 0x25, 0x1d,
  0xe6, 0x3f, 0xff, 0x0e, 0xe4, 0x0f, 0xef, 0x1f, 0xf7, 0x05, 0x08, 0xe6,
  0x1f, 0x21, 0xf3, 0xf6, 0xec, 0xf7, 0xf4, 0x28, 0x04, 0x24, 0x0c, 0xf6,
  0xee, 0xea, 0xfa, 0x23, 0xf4, 0x02, 0xeb, 0xfb, 0x14, 0x0a, 0xf3, 0xf1,
  0x28, 0x21, 0xf0, 0x01, 0xee, 0xf0, 0x00, 0x12, 0x13, 0x0c, 0x55, 0xf9,
  0x25, 0x1d, 0x22, 0x08, 0x30, 0xff, 0x2b, 0xe4, 0xe4, 0x15, 0x00, 0x1d,
  0xfa, 0x2c, 0xe2, 0xf0, 0x14, 0x0e, 0xf2, 0x13, 0x12, 0x13, 0xf1, 0x05,
  0x24, 0x1c, 0xdc, 0xf5, 0xec, 0xed, 0x03, 0xdc, 0xfc, 0x15, 0xf9, 0xff,
  0xe2, 0xf7, 0xd8, 0x14, 0xe9, 0x16, 0xfd, 0xe9, 0xeb, 0xfc, 0x16, 0x28,
  0x0a, 0xfe, 0xde, 0x09, 0xf3, 0xf2, 0xfa, 0xde, 0xf4, 0x07, 0x1b, 0xec,
  0xec, 0xe2, 0xe0, 0x1d, 0x04, 0x17, 0xeb, 0xee, 0x0c, 0xf6, 0x0d, 0x05,
  0x0c, 0xfb, 0x1c, 0x20, 0xea, 0xfd, 0xdf, 0x01, 0xeb, 0xfb, 0xe8, 0x1b,
  0xe9, 0x2c, 0xe3, 0x19, 0x16, 0x18, 0x0b, 0xdb, 0xf5, 0x04, 0xf0, 0x1c,
  0x1d, 0x15, 0x0a, 0xf1, 0x0d, 0xf8, 0xec, 0xf2, 0x08, 0xee, 0xe6, 0x09,
  0x00, 0xfb, 0xe8, 0x08, 0x20, 0x06, 0xfa, 0xfe, 0xf7, 0x0f, 0xe7, 0x07,
  0x2b, 0xe3, 0x0d, 0xd9, 0xe5, 0xf1, 0xf9, 0x0d, 0x18, 0xe2, 0x15, 0x00,
  0xdf, 0x0e, 0x13, 0xdb, 0xf1, 0xfc, 0xeb, 0x0f, 0x00, 0x0d, 0xee, 0x05,
  0xf4, 0x19, 0xef, 0x17, 0x12, 0xe8, 0x18, 0x06, 0x01, 0x1b, 0xfd, 0xf4,
  0xe6, 0x1f, 0x15, 0xda, 0x2a, 0x03, 0x19, 0x0f, 0x01, 0xe0, 0x1a, 0x11,
  0x0a, 0x13, 0xe7, 0xe2, 0x2b, 0xe0, 0xef, 0x09, 0x17, 0xf7, 0xed, 0xf6,
  0xf7, 0x19, 0x2d, 0x27, 0x00, 0x5c, 0x19, 0xfa, 0xd9, 0x00, 0x22, 0x1f,
  0x52, 0xe8, 0xff, 0x1d, 0x0d, 0xed, 0xef, 0x28, 0x04, 0xbc, 0x0c, 0xf9,
  0x25, 0x08, 0x23, 0x49, 0xe9, 0x4e, 0x29, 0x25, 0x1f, 0x29, 0x19, 0x20,
  0x0c, 0x14, 0xec, 0x1f, 0x0b, 0xf5, 0xe3, 0x09, 0xe6, 0x21, 0x13, 0x4f,
  0xf0, 0x09, 0x06, 0x04, 0x0a, 0xfd, 0x24, 0xef, 0x19, 0xf3, 0x02, 0xf7,
  0xfc, 0xd6, 0xe7, 0xfe, 0xfc, 0xe5, 0x21, 0xee, 0x1a, 0xfb, 0xf6, 0xf6,
  0x1b, 0x16, 0x4e, 0x09, 0x2f, 0x29, 0x18, 0xf7, 0x0a, 0xf0, 0x22, 0xc9,
  0x13, 0x32, 0xf7, 0x0d, 0x1c, 0x0f, 0x0e, 0x28, 0x0b, 0xea, 0x18, 0xfc,
  0xfb, 0xfb, 0xf3, 0x16, 0xfc, 0x14, 0xdd, 0xf3, 0x21, 0x23, 0x1b, 0xf5,
  0x3f, 0xed, 0x17, 0x0e, 0x00, 0xfb, 0x1c, 0xfa, 0x01, 0x24, 0x26, 0x14,
  0x27, 0x0e, 0xed, 0xf3, 0x0f, 0x08, 0xf4, 0xf8, 0x19, 0xf7, 0x0d, 0x1c,
  0xea, 0x61, 0x09, 0x17, 0xf1, 0x07, 0x18, 0xef, 0x42, 0xf7, 0x21, 0xeb,
  0x27, 0x16, 0xfb, 0x0d, 0x1a, 0xed, 0x20, 0xef, 0x0e, 0x0f, 0x24, 0x44,
  0x27, 0x22, 0x04, 0xf2, 0x0b, 0xfd, 0x0c, 0x14, 0x23, 0x15, 0x19, 0x16,
  0x16, 0x13, 0x18, 0x10, 0x03, 0x37, 0x19, 0x28, 0x11, 0xfd, 0xf1, 0x0a,
  0x1b, 0x20, 0xf4, 0x12, 0x07, 0x01, 0x1f, 0x1d, 0x20, 0x12, 0xf3, 0xf3,
  0xfd, 0xe9, 0x23, 0xe5, 0xf1, 0x06, 0x20, 0x05, 0x05, 0x1e, 0x4f, 0x14,
  0xf8, 0xf0, 0xee, 0x05, 0x00, 0xed, 0xed, 0xdf, 0x28, 0x2c, 0x22, 0x0c,
  0xec, 0xf2, 0x1a, 0xef, 0x0d, 0x09, 0x07, 0x21, 0x01, 0xe0, 0x1a, 0xf8,
  0x1e, 0x13, 0xed, 0x24, 0x13, 0xf5, 0x13, 0xea, 0x2f, 0x0a, 0xfa, 0x29,
  0xf7, 0xe8, 0xf5, 0xf7, 0x1a, 0xe8, 0xfa, 0x12, 0x0a, 0xfc, 0x0e, 0x21,
  0x1c, 0xee, 0x0d, 0x1a, 0xe8, 0xf1, 0x32, 0x14, 0xea, 0x67, 0x19, 0xfb,
  0x11, 0xef, 0xed, 0x12, 0x70, 0x0d, 0xef, 0x08, 0x20, 0x15, 0xf6, 0x02,
  0x05, 0xc2, 0xf4, 0x17, 0x26, 0x17, 0x1c, 0x26, 0x21, 0x42, 0xfa, 0x28,
  0x04, 0x07, 0x12, 0x23, 0x2e, 0xfd, 0x05, 0x1a, 0x02, 0xeb, 0xea, 0x1a,
  0x0b, 0x14, 0xfc, 0x3b, 0x0c, 0x01, 0x00, 0x0b, 0x22, 0x12, 0x23, 0xf5,
  0x16, 0x24, 0xeb, 0x0b, 0x0c, 0x1e, 0x23, 0x19, 0xea, 0x22, 0x1c, 0xe4,
  0xff, 0x10, 0x0a, 0x0a, 0x1b, 0x27, 0x1e, 0x2a, 0x2b, 0xfe, 0xee, 0xed,
  0x08, 0x11, 0xfe, 0xd2, 0x04, 0x14, 0x26, 0x21, 0x27, 0x2e, 0xe4, 0xf5,
  0x24, 0x24, 0x22, 0x26, 0xf7, 0xe1, 0xef, 0xef, 0x16, 0x23, 0xe0, 0xf0,
  0x13, 0xfa, 0xe7, 0xf2, 0xde, 0xdf, 0x00, 0x16, 0x15, 0xd7, 0xe0, 0x14,
  0xe8, 0x1f, 0xdd, 0xef, 0xfb, 0x16, 0x0c, 0xe4, 0xf8, 0x00, 0xdc, 0x1f,
  0xe6, 0xda, 0x06, 0xed, 0xea, 0x0a, 0xeb, 0x12, 0xf0, 0xf5, 0xdf, 0x0f,
  0xf7, 0xe2, 0xfd, 0xf9, 0xf3, 0xd6, 0xda, 0x07, 0x10, 0x00, 0x03, 0xec,
  0x09, 0x21, 0xe3, 0xfd, 0xe8, 0xfb, 0x00, 0xe5, 0xe2, 0x17, 0xe0, 0xf6,
  0x00, 0xf2, 0xfd, 0x07, 0x11, 0x0a, 0x0a, 0x0e, 0xfc, 0x06, 0x07, 0xff,
  0xea, 0x06, 0x13, 0x07, 0x17, 0x11, 0x05, 0x0c, 0xe4, 0x0c, 0xee, 0x03,
  0xea, 0x29, 0x14, 0x07, 0xf3, 0x08, 0x09, 0xf6, 0xe8, 0x1d, 0x11, 0x05,
  0xe5, 0x09, 0x18, 0xe7, 0xf3, 0x1b, 0xde, 0xed, 0x01, 0xd7, 0x03, 0xe9,
  0xf4, 0x26, 0xeb, 0xda, 0x04, 0xdc, 0xff, 0xee, 0xd8, 0xdb, 0xf9, 0x12,
  0x0d, 0x12, 0xdb, 0xf7, 0x19, 0xe6, 0x16, 0xea, 0x10, 0xe6, 0xfb, 0xd7,
  0xfc, 0xfc, 0x12, 0xfe, 0xf8, 0x16, 0x15, 0x01, 0x09, 0xf0, 0xea, 0xf9,
  0xfa, 0x00, 0xe4, 0xe2, 0xdd, 0x03, 0xef, 0xf0, 0xe1, 0xe1, 0x05, 0x0d,
  0xe6, 0xdd, 0xfc, 0xff, 0x10, 0xe5, 0xfc, 0x00, 0xdb, 0xf4, 0xf3, 0xf0,
  0xe0, 0xdc, 0xde, 0xf6, 0xef, 0x13, 0xf3, 0x11, 0xf3, 0x01, 0xeb, 0x0b,
  0x04, 0x13, 0xe6, 0x08, 0xec, 0x02, 0xf9, 0x06, 0xde, 0x02, 0xf0, 0xff,
  0xdc, 0xf3, 0xef, 0xd7, 0xfd, 0x0b, 0x10, 0x15, 0x18, 0xe6, 0x0e, 0x12,
  0xe7, 0xe2, 0x00, 0xf3, 0x12, 0x0c, 0xe5, 0xe9, 0x13, 0xe7, 0xe7, 0xd6,
  0xd7, 0xfc, 0x0b, 0xed, 0x00, 0xda, 0x13, 0xfc, 0x0e, 0x11, 0xd8, 0x07,
  0x11, 0xeb, 0xef, 0xfd, 0x03, 0xdf, 0xf8, 0x15, 0xf7, 0x06, 0xe0, 0xf4,
  0x16, 0x15, 0xed, 0xd8, 0xeb, 0xe1, 0xdf, 0xe5, 0xee, 0xf5, 0x0d, 0xf2,
  0xfe, 0x03, 0x0b, 0x08, 0x16, 0x13, 0x33, 0xe6, 0x3c, 0x0f, 0x27, 0xfd,
  0xe9, 0x13, 0x17, 0x02, 0x06, 0x04, 0xfe, 0x20, 0x19, 0x03, 0x25, 0x05,
  0x06, 0x05, 0x24, 0x0d, 0xfc, 0xfa, 0x11, 0x2a, 0x06, 0x78, 0xf6, 0xf0,
  0x08, 0x22, 0x0e, 0xef, 0x6d, 0xf2, 0x29, 0xfd, 0x0f, 0x26, 0x1e, 0xf6,
  0xec, 0xe2, 0xf0, 0x0b, 0x29, 0xeb, 0xe9, 0x3a, 0x25, 0x18, 0xf9, 0x1c,
  0xf3, 0xfe, 0x01, 0x21, 0xee, 0xf5, 0x21, 0x02, 0x21, 0x29, 0xf4, 0xed,
  0x16, 0xf7, 0xef, 0x17, 0x0b, 0x24, 0x16, 0x07, 0xf0, 0x03, 0x2c, 0x0f,
  0x18, 0x2a, 0xfd, 0xfa, 0x09, 0xe7, 0x12, 0x00, 0xf2, 0x09, 0x10, 0x15,
  0x08, 0x25, 0x21, 0x1e, 0x19, 0x1c, 0x17, 0x2a, 0xf3, 0x01, 0xed, 0x1e,
  0x0d, 0x00, 0xf7, 0xef, 0xfc, 0x37, 0x1a, 0x25, 0xfc, 0x1a, 0x0c, 0xf5,
  0x19, 0x12, 0xf5, 0xfb, 0x0b, 0xf2, 0x00, 0x26, 0x25, 0x15, 0x18, 0xfe,
  0xe5, 0xf2, 0x20, 0xda, 0x00, 0x06, 0xf7, 0xf8, 0xdf, 0xf7, 0xe8, 0xf7,
  0x2c, 0xe9, 0xff, 0xe9, 0x17, 0x0c, 0xf1, 0x28, 0xe7, 0x03, 0x09, 0x1b,
  0xec, 0x16, 0xef, 0xe0, 0xd6, 0x10, 0xe6, 0xf1, 0x14, 0xd7, 0x07, 0xf0,
  0x1a, 0xe9, 0xfd, 0xfe, 0xe4, 0xea, 0xf4, 0xf6, 0x0d, 0xe7, 0x13, 0x0a,
  0xe3, 0x19, 0x12, 0xd9, 0xf2, 0x2e, 0x08, 0x07, 0xd9, 0xf5, 0x16, 0xf1,
  0xfd, 0x16, 0xe7, 0x0b, 0x08, 0x09, 0x0e, 0xf4, 0xe0, 0x28, 0x1a, 0xfa,
  0x02, 0xe8, 0xe6, 0xf9, 0x08, 0xed, 0x00, 0x19, 0xe5, 0x0b, 0x04, 0x0f,
  0x05, 0x07, 0x0a, 0x03, 0x2e, 0x00, 0xd5, 0x1f, 0x0f, 0xfe, 0x19, 0x19,
  0xfc, 0xee, 0xe7, 0x16, 0xfb, 0x00, 0xff, 0x19, 0xdd, 0xfb, 0xef, 0x2c,
  0xe4, 0x09, 0xef, 0xe7, 0x06, 0x14, 0x09, 0xf0, 0x04, 0x03, 0x01, 0xf4,
  0x01, 0xe6, 0x1c, 0x25, 0x17, 0xf4, 0xec, 0x0d, 0xd5, 0xf2, 0xfd, 0xda,
  0x47, 0xfb, 0xfa, 0x08, 0xec, 0xec, 0xf6, 0x1e, 0x06, 0x00, 0x1e, 0x1c,
  0x08, 0xf7, 0x0a, 0x23, 0x0f, 0xfc, 0x07, 0xee, 0x10, 0x04, 0x1c, 0x38,
  0xe8, 0x6d, 0x1a, 0x1f, 0xef, 0xfe, 0x04, 0x09, 0x44, 0xf8, 0xf2, 0xf3,
  0x20, 0x11, 0xf3, 0x13, 0xef, 0xe4, 0xee, 0x03, 0xfa, 0x0f, 0xf9, 0x4d,
  0xea, 0x59, 0x05, 0x24, 0x19, 0xe8, 0xff, 0x24, 0x25, 0x11, 0xe1, 0x0b,
  0x28, 0xea, 0xf4, 0x05, 0x06, 0x19, 0x04, 0x2a, 0x18, 0x33, 0x0a, 0x0c,
  0xea, 0xe3, 0x1c, 0x0d, 0x0e, 0xf8, 0xe8, 0xf6, 0xf0, 0x18, 0xf8, 0xf6,
  0x07, 0x05, 0x1d, 0x18, 0x25, 0xf5, 0xe2, 0x1a, 0xfc, 0x1e, 0x49, 0x15,
  0xfa, 0xf2, 0x03, 0xf4, 0xf3, 0x19, 0xfe, 0xc0, 0x0b, 0x18, 0x1f, 0x12,
  0xf9, 0x26, 0x15, 0x14, 0x21, 0x21, 0xf1, 0x09, 0xf1, 0xe7, 0xfb, 0x0b,
  0x1f, 0xf8, 0xe9, 0x0f, 0xdd, 0xe0, 0xe9, 0x02, 0xef, 0xdf, 0x08, 0xe0,
  0xe8, 0xfa, 0x0d, 0x03, 0xdc, 0xe0, 0x10, 0xdf, 0xfb, 0x07, 0xf1, 0x0b,
  0x10, 0xe9, 0xf1, 0xf9, 0x0b, 0x18, 0xf5, 0xea, 0xe6, 0xfc, 0x09, 0xd9,
  0xfd, 0xf1, 0x15, 0xf3, 0xf4, 0xe3, 0xe8, 0x02, 0xfd, 0x13, 0xda, 0x0b,
  0x05, 0xd7, 0xfe, 0x0a, 0xdc, 0x17, 0xf2, 0xe9, 0xe9, 0x18, 0x0d, 0xdf,
  0xf8, 0xe0, 0xd6, 0x04, 0xfe, 0x0d, 0xff, 0x00, 0x0b, 0x16, 0x16, 0x0a,
  0x05, 0x0a, 0xd9, 0xda, 0xdf, 0xf1, 0x19, 0xe2, 0xf5, 0x09, 0xd6, 0xd8,
  0xf4, 0x15, 0x15, 0xe5, 0x11, 0xe1, 0xe1, 0xf8, 0xfb, 0x20, 0xfc, 0xf7,
  0x17, 0x16, 0x0f, 0x0b, 0xea, 0xda, 0x12, 0xda, 0xfb, 0xe8, 0x19, 0xf3,
  0xf1, 0x13, 0xde, 0xfc, 0xd7, 0x04, 0xfe, 0xd6, 0x06, 0xdb, 0x1b, 0xe8,
  0xe3, 0xe5, 0xfe, 0x17, 0xf7, 0xfd, 0x18, 0xec, 0x17, 0xfc, 0x16, 0x0d,
  0x06, 0xdb, 0xe8, 0xd2, 0x49, 0xd8, 0x02, 0xf9, 0x1a, 0xef, 0xf2, 0xf7,
  0xfb, 0x11, 0xe4, 0x05, 0xf9, 0xcd, 0x25, 0x0e, 0x26, 0x18, 0x1d, 0x02,
  0xe6, 0xf3, 0x19, 0xf6, 0x13, 0x55, 0x03, 0x29, 0x16, 0xf6, 0x19, 0x0a,
  0x35, 0xea, 0xf9, 0x17, 0xe7, 0x1e, 0x07, 0x0b, 0xff, 0xd5, 0x00, 0x1e,
  0x05, 0xee, 0x15, 0xe7, 0x1f, 0xdb, 0x0c, 0x0d, 0x1d, 0xf0, 0xf5, 0xff,
  0x12, 0x02, 0x1e, 0xf0, 0xde, 0x23, 0x09, 0x10, 0xdf, 0x12, 0x09, 0x20,
  0x03, 0x39, 0xee, 0xf5, 0x2b, 0xf6, 0xe9, 0xf0, 0x1f, 0xfc, 0x02, 0x06,
  0x1f, 0x17, 0x04, 0x0b, 0x20, 0xe7, 0xf3, 0x02, 0x27, 0x1a, 0xf7, 0xf6,
  0x1f, 0xfd, 0xf7, 0x0d, 0x2c, 0x13, 0xf2, 0xfa, 0x1c, 0xed, 0x03, 0xed,
  0xfd, 0x18, 0x1f, 0xe7, 0xe7, 0x02, 0x01, 0x29, 0xf9, 0x0e, 0x0f, 0xf2,
  0x14, 0x00, 0x14, 0x15, 0x17, 0x29, 0x16, 0xed, 0x0e, 0x15, 0xe9, 0x13,
  0x12, 0xfc, 0x03, 0xe6, 0xe1, 0xf0, 0xe7, 0xdf, 0x17, 0xe6, 0xec, 0xeb,
  0xe7, 0xf3, 0xfa, 0xf9, 0xe5, 0xfc, 0x14, 0x0e, 0x03, 0xfc, 0xea, 0xd7,
  0xda, 0xe4, 0xe5, 0x02, 0xfb, 0xea, 0xfc, 0xdb, 0xdd, 0x0e, 0x0d, 0x0c,
  0xd9, 0x10, 0x03, 0xf1, 0xee, 0x0c, 0xec, 0xe9, 0x07, 0x00, 0xf6, 0x0b,
  0xe4, 0xe4, 0x16, 0xf0, 0x0a, 0x06, 0x0f, 0xe8, 0xef, 0x01, 0xe3, 0x18,
  0xea, 0x0e, 0x16, 0x0a, 0xee, 0xeb, 0xed, 0xee, 0xe9, 0x0e, 0xfb, 0xd9,
  0xfe, 0x16, 0xd8, 0x0a, 0x16, 0xf2, 0xea, 0xf4, 0x12, 0xe9, 0xfb, 0x0b,
  0x00, 0xeb, 0x0f, 0xe2, 0xdf, 0x07, 0x0c, 0xe2, 0xe6, 0xe1, 0xee, 0xe1,
  0x06, 0xf3, 0x10, 0x14, 0x0e, 0x02, 0x03, 0xe9, 0xe6, 0xd7, 0x17, 0xec,
  0x00, 0x02, 0xf2, 0xf2, 0x11, 0xf9, 0x06, 0x19, 0xef, 0x10, 0x13, 0xe8,
  0x0b, 0xe6, 0x0a, 0x13, 0x13, 0x11, 0x16, 0xfc, 0xed, 0x0f, 0x05, 0x15,
  0xf5, 0x01, 0x14, 0xe4, 0xd8, 0xd7, 0xff, 0x15, 0xf4, 0xf2, 0x0b, 0x05,
  0xea, 0xdb, 0xe8, 0xe8, 0x02, 0x13, 0xdb, 0xf4, 0x1c, 0xde, 0x04, 0x0e,
  0xd6, 0x14, 0xe1, 0x04, 0xde, 0xff, 0xf9, 0x07, 0xfa, 0xfc, 0xf1, 0x01,
  0xf4, 0xe2, 0x0c, 0xe1, 0x00, 0xda, 0xd8, 0x0f, 0xe1, 0xe6, 0xe5, 0xf9,
  0xf7, 0xfa, 0xfd, 0xdc, 0xee, 0xfa, 0xf1, 0xf7, 0x07, 0x00, 0xee, 0x07,
  0x0a, 0xef, 0x18, 0xf6, 0x17, 0xf9, 0xe3, 0x17, 0x02, 0xf2, 0x11, 0x0d,
  0x09, 0xf5, 0xfd, 0xe0, 0xe2, 0x09, 0xdc, 0x08, 0x09, 0x0e, 0x0e, 0x09,
  0x07, 0xdb, 0xf2, 0xe2, 0x0e, 0xed, 0x15, 0xdb, 0x06, 0xe3, 0xe3, 0x18,
  0xed, 0xe0, 0xf6, 0xf0, 0x17, 0xe5, 0xe9, 0x05, 0xf6, 0x08, 0xe9, 0xd6,
  0xf3, 0x17, 0xfc, 0xe4, 0x14, 0x01, 0xe7, 0xd8, 0x0f, 0x0d, 0xee, 0xff,
  0xfc, 0xe6, 0x09, 0xe8, 0x2a, 0xea, 0x12, 0x29, 0xfd, 0xf2, 0x05, 0xf0,
  0xf6, 0xe7, 0x01, 0xf7, 0x29, 0x09, 0xf7, 0x0c, 0x15, 0x1b, 0x11, 0x1d,
  0x11, 0xe9, 0x18, 0x0c, 0x06, 0x3e, 0xea, 0x14, 0xf5, 0x16, 0xf3, 0x29,
  0x53, 0x22, 0x0a, 0xff, 0xfd, 0x19, 0x09, 0x2c, 0x04, 0xfc, 0xf0, 0x21,
  0xf4, 0x00, 0x02, 0x3d, 0x21, 0x2f, 0x1d, 0xf2, 0x25, 0xf0, 0xfc, 0x1c,
  0x18, 0xf8, 0xfb, 0x1e, 0x06, 0x03, 0xf1, 0xfc, 0x17, 0x34, 0x07, 0x2b,
  0x00, 0x0c, 0xf5, 0xf7, 0x0d, 0x21, 0x14, 0x02, 0x1e, 0x09, 0xff, 0xf8,
  0xe3, 0xfd, 0xf1, 0xff, 0x24, 0x06, 0x2c, 0xf9, 0xef, 0xfd, 0xfb, 0x05,
  0x07, 0x12, 0x11, 0xf2, 0x07, 0xf8, 0x26, 0xff, 0x01, 0x09, 0x03, 0xca,
  0x04, 0x1f, 0x09, 0xef, 0xfc, 0xff, 0xf3, 0x08, 0xe7, 0x12, 0xf3, 0x16,
  0x20, 0xe5, 0x19, 0xf8, 0x04, 0x24, 0xfc, 0x1f, 0xf2, 0xfd, 0xff, 0xff,
  0x04, 0x00, 0x00, 0x00, 0x00, 0x02, 0x00, 0x00, 0xd3, 0xff, 0xff, 0xff,
  0x2b, 0xff, 0xff, 0xff, 0xee, 0xff, 0xff, 0xff, 0x21, 0xff, 0xff, 0xff,
  0xce, 0xfe, 0xff, 0xff, 0xe6, 0xff, 0xff, 0xff, 0xcf, 0xff, 0xff, 0xff,
  0xe6, 0xff, 0xff, 0xff, 0xe1, 0xff, 0xff, 0xff, 0xdc, 0xff, 0xff, 0xff,
  0x6d, 0xff, 0xff, 0xff, 0x37, 0xff, 0xff, 0xff, 0xdd, 0xff, 0xff, 0xff,
  0x9b, 0xff, 0xff, 0xff, 0xdb, 0xff, 0xff, 0xff, 0xdb, 0xff, 0xff, 0xff,
  0x6c, 0x00, 0x00, 0x00, 0x92, 0xff, 0xff, 0xff, 0x59, 0xff, 0xff, 0xff,
  0xd1, 0xff, 0xff, 0xff, 0x4c, 0xff, 0xff, 0xff, 0xc3, 0xff, 0xff, 0xff,
  0x82, 0xff, 0xff, 0xff, 0xd0, 0xff, 0xff, 0xff, 0xe2, 0xff, 0xff, 0xff,
  0xec, 0xff, 0xff, 0xff, 0x3b, 0xff, 0xff, 0xff, 0x48, 0x00, 0x00, 0x00,
  0x25, 0x00, 0x00, 0x00, 0xab, 0xfb, 0xff, 0xff, 0xe2, 0xff, 0xff, 0xff,
  0xde, 0xff, 0xff, 0xff, 0xd3, 0xff, 0xff, 0xff, 0x5b, 0xfe, 0xff, 0xff,
  0xae, 0xff, 0xff, 0xff, 0xef, 0xff, 0xff, 0xff, 0xbd, 0x02, 0x00, 0x00,
  0xda, 0xff, 0xff, 0xff, 0x4a, 0xff, 0xff, 0xff, 0xdd, 0xff, 0xff, 0xff,
  0x79, 0xff, 0xff, 0xff, 0x88, 0xff, 0xff, 0xff, 0xed, 0xfe, 0xff, 0xff,
  0xd1, 0xff, 0xff, 0xff, 0xdc, 0xff, 0xff, 0xff, 0x77, 0x00, 0x00, 0x00,
  0x00, 0x00, 0x00, 0x00, 0x00, 0x00, 0x00, 0x00, 0xd5, 0xfe, 0xff, 0xff,
  0xe1, 0xff, 0xff, 0xff, 0x8a, 0xff, 0xff, 0xff, 0x66, 0x01, 0x00, 0x00,
  0x94, 0xff, 0xff, 0xff, 0xed, 0xff, 0xff, 0xff, 0xe1, 0xff, 0xff, 0xff,
  0x8a, 0xff, 0xff, 0xff, 0x55, 0xff, 0xff, 0xff, 0xd2, 0xff, 0xff, 0xff,
  0x9c, 0xff, 0xff, 0xff, 0x39, 0xff, 0xff, 0xff, 0x51, 0x00, 0x00, 0x00,
  0xe1, 0xff, 0xff, 0xff, 0x00, 0x00, 0x00, 0x00, 0x8a, 0xff, 0xff, 0xff,
  0x0c, 0x00, 0x00, 0x00, 0xd2, 0xff, 0xff, 0xff, 0xda, 0xff, 0xff, 0xff,
  0xdc, 0xff, 0xff, 0xff, 0xd5, 0xff, 0xff, 0xff, 0x9c, 0x00, 0x00, 0x00,
  0xce, 0xff, 0xff, 0xff, 0x5c, 0xfc, 0xff, 0xff, 0xd1, 0xff, 0xff, 0xff,
  0xa9, 0x00, 0x00, 0x00, 0x66, 0xff, 0xff, 0xff, 0x20, 0x00, 0x00, 0x00,
  0xd6, 0xff, 0xff, 0xff, 0x8b, 0xff, 0xff, 0xff, 0x8b, 0xff, 0xff, 0xff,
  0xd8, 0xff, 0xff, 0xff, 0x00, 0x00, 0x00, 0x00, 0xcb, 0xff, 0xff, 0xff,
  0x17, 0x00, 0x00, 0x00, 0x87, 0xff, 0xff, 0xff, 0xe1, 0xff, 0xff, 0xff,
  0xda, 0xff, 0xff, 0xff, 0xcf, 0xff, 0xff, 0xff, 0xc9, 0xff, 0xff, 0xff,
  0xe4, 0xff, 0xff, 0xff, 0x00, 0x00, 0x00, 0x00, 0x6c, 0xff, 0xff, 0xff,
  0x00, 0x00, 0x00, 0x00, 0xcc, 0xff, 0xff, 0xff, 0xa8, 0xff, 0xff, 0xff,
  0xe1, 0xff, 0xff, 0xff, 0xab, 0xff, 0xff, 0xff, 0x00, 0x00, 0x00, 0x00,
  0xf0, 0xfb, 0xff, 0xff, 0x69, 0xfe, 0xff, 0xff, 0x15, 0x00, 0x00, 0x00,
  0xd3, 0xff, 0xff, 0xff, 0xe1, 0xff, 0xff, 0xff, 0xd7, 0xff, 0xff, 0xff,
  0xc7, 0xff, 0xff, 0xff, 0x58, 0xfe, 0xff, 0xff, 0xd4, 0xff, 0xff, 0xff,
  0xd5, 0xff, 0xff, 0xff, 0x64, 0xff, 0xff, 0xff, 0xe2, 0xff, 0xff, 0xff,
  0x25, 0x00, 0x00, 0x00, 0x72, 0xff, 0xff, 0xff, 0x7d, 0xff, 0xff, 0xff,
  0xd3, 0xff, 0xff, 0xff, 0x46, 0x00, 0x00, 0x00, 0x00, 0x00, 0x00, 0x00,
  0xe2, 0xff, 0xff, 0xff, 0xa7, 0xff, 0xff, 0xff, 0x7b, 0xff, 0xff, 0xff,
  0xd2, 0xff, 0xff, 0xff, 0x62, 0xff, 0xff, 0xff, 0xc8, 0xff, 0xff, 0xff,
  0x00, 0x00, 0x00, 0x00, 0xda, 0xff, 0xff, 0xff, 0xe7, 0xff, 0xff, 0xff,
  0x1e, 0x00, 0x00, 0x00, 0x2e, 0xff, 0xff, 0xff, 0xe7, 0xff, 0xff, 0xff,
  0xca, 0xff, 0xff, 0xff, 0x00, 0x00, 0x06, 0x00, 0x08, 0x00, 0x04, 0x00,
  0x06, 0x00, 0x00, 0x00, 0x04, 0x00, 0x00, 0x00, 0x00, 0x12, 0x00, 0x00,
  0x11, 0x1a, 0x05, 0x1a, 0xfa, 0x07, 0x02, 0xe9, 0x06, 0xf2, 0x03, 0x12,
  0x06, 0x05, 0x0b, 0xff, 0x09, 0x0a, 0x02, 0xf3, 0xed, 0x0c, 0xf5, 0xf3,
  0xec, 0xef, 0xec, 0xe2, 0xff, 0xff, 0xef, 0x0b, 0x04, 0x04, 0xf8, 0xf4,
  0x04, 0xf7, 0x09, 0xf6, 0x01, 0x0b, 0xfb, 0x14, 0xfb, 0xec, 0xeb, 0x06,
  0x0b, 0x16, 0x22, 0xe7, 0x1e, 0xff, 0x10, 0xf2, 0xfd, 0xf1, 0x26, 0x01,
  0x0b, 0x1f, 0xfc, 0xee, 0xf5, 0xf5, 0x05, 0x04, 0xf6, 0x08, 0xfd, 0x02,
  0xf9, 0x0c, 0x03, 0x01, 0x0c, 0x1f, 0xfa, 0xf3, 0xef, 0xfa, 0xf2, 0x26,
  0x09, 0xff, 0xd5, 0xe8, 0x04, 0x03, 0xf1, 0xfa, 0x16, 0x06, 0xb1, 0xfe,
  0xed, 0xfb, 0xf1, 0xf3, 0x05, 0x05, 0x08, 0x00, 0xf7, 0xf2, 0xf9, 0xe8,
  0x08, 0xf8, 0xef, 0xde, 0x1d, 0x0f, 0x16, 0x0e, 0x08, 0xfd, 0x09, 0x22,
  0x12, 0x14, 0xea, 0x0c, 0x3d, 0xe0, 0x39, 0x02, 0x25, 0xf7, 0x01, 0xf6,
  0xf8, 0xef, 0x24, 0xfd, 0x1d, 0xf6, 0x11, 0xd1, 0x19, 0xeb, 0x1d, 0x02,
  0x03, 0x29, 0xe7, 0x0a, 0xf1, 0xf0, 0x1e, 0xf3, 0xf9, 0x17, 0x0f, 0x09,
  0xd8, 0x0a, 0xf7, 0xf9, 0x13, 0xfd, 0xd1, 0xf6, 0x1b, 0x13, 0xe5, 0x26,
  0xee, 0x15, 0x25, 0x07, 0xfe, 0x1a, 0x00, 0xd6, 0xff, 0xf6, 0xea, 0xf2,
  0xff, 0xf3, 0x16, 0x02, 0x02, 0xf7, 0xf8, 0xfe, 0x10, 0x0e, 0x18, 0xfd,
  0x10, 0xf3, 0x08, 0xfc, 0xf9, 0xf6, 0xf8, 0x06, 0x07, 0xef, 0xf2, 0x03,
  0x06, 0xf4, 0x0b, 0xfa, 0xfd, 0x13, 0x0c, 0x01, 0xf2, 0xfa, 0xeb, 0x08,
  0x0a, 0x07, 0xf5, 0x18, 0xf6, 0xea, 0xfa, 0x07, 0x14, 0x01, 0x17, 0x0f,
  0xf6, 0xf0, 0x1a, 0xf9, 0x0d, 0xf7, 0xf9, 0xed, 0xf4, 0xed, 0xfd, 0xfe,
  0x00, 0x17, 0xfc, 0xff, 0x09, 0xfb, 0xfb, 0x09, 0xe4, 0xf0, 0xe7, 0xe9,
  0xf2, 0xf4, 0x0d, 0xed, 0xfb, 0xfc, 0xfc, 0x09, 0xf8, 0x17, 0x18, 0x09,
  0x14, 0xfb, 0x01, 0x0d, 0x0e, 0x0e, 0x0e, 0xf2, 0xff, 0x02, 0xf1, 0xfc,
  0xf1, 0xeb, 0x00, 0xfc, 0xe9, 0x16, 0x0e, 0xfc, 0xf1, 0x0c, 0xf8, 0xfa,
  0xfe, 0x0a, 0xf7, 0x03, 0x08, 0xfb, 0xff, 0xf0, 0x0e, 0x06, 0x0c, 0x05,
  0xfa, 0x03, 0x0c, 0x02, 0x0f, 0xf5, 0xe5, 0xeb, 0x03, 0x04, 0x0b, 0xfb,
  0x0f, 0xf2, 0xee, 0xe7, 0xfa, 0x1b, 0xfb, 0xf4, 0xf0, 0x04, 0xf5, 0xe9,
  0x17, 0xf9, 0xf4, 0xfa, 0xff, 0xf9, 0x0b, 0xea, 0x05, 0x11, 0xf4, 0x01,
  0xf7, 0x00, 0x05, 0x0f, 0xfb, 0xfc, 0x16, 0xe8, 0x0f, 0x04, 0xf8, 0x09,
  0xee, 0x05, 0x0d, 0xef, 0xe9, 0x06, 0xe6, 0x16, 0x01, 0xf5, 0xff, 0xf1,
  0xf5, 0xe6, 0x11, 0xe6, 0xf9, 0xef, 0x00, 0x16, 0xf2, 0xe4, 0xf7, 0x02,
  0x0c, 0x0a, 0xfa, 0xe9, 0xed, 0xec, 0x0d, 0x0d, 0x11, 0xff, 0xf3, 0xf6,
  0x0a, 0x0a, 0xfb, 0xf4, 0x17, 0xe9, 0xf3, 0x08, 0x0a, 0x04, 0xed, 0x04,
  0xf5, 0xfa, 0xee, 0x05, 0x0c, 0x02, 0xe2, 0x0e, 0x0e, 0x07, 0xfc, 0xf2,
  0xf9, 0x03, 0xfe, 0xf6, 0x04, 0x10, 0x11, 0x01, 0xf4, 0xf3, 0xfb, 0xfc,
  0xf9, 0x12, 0x0a, 0x05, 0x06, 0x03, 0x0c, 0x08, 0xf2, 0xf3, 0xf9, 0xfe,
  0x04, 0xfa, 0x06, 0xf8, 0x1a, 0xf0, 0x05, 0xf0, 0x04, 0x13, 0xf8, 0xf2,
  0xf2, 0xe5, 0xf3, 0xff, 0x06, 0xf8, 0x00, 0x01, 0x16, 0x0b, 0x12, 0xf4,
  0xfc, 0x04, 0xf3, 0xed, 0xf0, 0x0c, 0xec, 0x17, 0xf9, 0xff, 0x04, 0xe9,
  0x02, 0xe8, 0xff, 0x0a, 0xff, 0xfb, 0x06, 0x01, 0x07, 0xe5, 0xf7, 0xf3,
  0xfb, 0x19, 0x0a, 0xf1, 0xfe, 0xff, 0x15, 0xf4, 0x11, 0x0d, 0x0e, 0x00,
  0xee, 0xf7, 0x05, 0x09, 0x12, 0x14, 0x17, 0x01, 0xee, 0x01, 0x06, 0x03,
  0x06, 0x15, 0x07, 0xf7, 0x18, 0x01, 0xf8, 0xe6, 0xfb, 0xfb, 0x01, 0x00,
  0x19, 0xe9, 0xf8, 0x03, 0xf9, 0xf7, 0x01, 0xe6, 0x0f, 0xe6, 0xfe, 0x08,
  0xee, 0x06, 0x05, 0xf3, 0xfe, 0xfd, 0x01, 0x05, 0x05, 0x07, 0xef, 0x0b,
  0xf3, 0xfa, 0xf9, 0x0d, 0x11, 0x07, 0x09, 0xf4, 0x03, 0x0f, 0x19, 0xf6,
  0xf9, 0xe7, 0x04, 0x1d, 0xf6, 0xfd, 0x0d, 0x04, 0xed, 0xe9, 0x0d, 0x06,
  0x06, 0xf1, 0xfe, 0xfc, 0xec, 0x0e, 0xfc, 0xfd, 0xfb, 0xf8, 0xf5, 0x01,
  0x0b, 0x04, 0xfb, 0xe7, 0xf8, 0xe9, 0x05, 0x04, 0xfa, 0x03, 0xef, 0xed,
  0x02, 0x01, 0xb5, 0xf7, 0x02, 0x05, 0xde, 0xcc, 0xf0, 0x14, 0xdd, 0x07,
  0x1b, 0xf0, 0x06, 0xf2, 0xef, 0x15, 0xee, 0xfd, 0xe9, 0x02, 0x01, 0xf8,
  0x00, 0xf0, 0xe7, 0xf6, 0xf7, 0xea, 0xed, 0xf8, 0xe2, 0xfa, 0xf5, 0xe5,
  0xef, 0x11, 0xe1, 0xea, 0x0d, 0xf6, 0x0d, 0xf2, 0x07, 0xf6, 0xf7, 0xf0,
  0xf5, 0xf3, 0x12, 0x02, 0xf2, 0xea, 0x08, 0xe8, 0x0c, 0xe3, 0x10, 0xef,
  0x00, 0x1a, 0xf6, 0xfb, 0xfd, 0xf7, 0x03, 0xe9, 0xf5, 0x11, 0xf6, 0x0a,
  0x16, 0x00, 0x15, 0xf3, 0x00, 0x23, 0xec, 0xea, 0xff, 0xee, 0x0a, 0x11,
  0xeb, 0x02, 0x16, 0xf7, 0x01, 0x0d, 0x06, 0x06, 0x0d, 0x08, 0xfe, 0x02,
  0xfa, 0x14, 0xf9, 0x1b, 0x18, 0x0b, 0x1d, 0x08, 0xfc, 0xfd, 0xfb, 0xed,
  0x07, 0xea, 0xff, 0x12, 0xfc, 0x1c, 0xfb, 0xff, 0x06, 0x02, 0xec, 0xf6,
  0xf2, 0xf7, 0xee, 0x05, 0xfe, 0x03, 0xff, 0xff, 0xf4, 0xec, 0x04, 0xea,
  0xe4, 0x13, 0xfd, 0x07, 0x01, 0x07, 0x02, 0xf8, 0xd9, 0xfb, 0xf9, 0xf4,
  0xe8, 0x03, 0x0f, 0x09, 0x10, 0x11, 0xf1, 0x0f, 0x08, 0xf9, 0x11, 0x00,
  0x05, 0x15, 0x0a, 0xe9, 0x13, 0x18, 0x17, 0x04, 0x00, 0xfc, 0x0a, 0xe4,
  0x0c, 0x08, 0x1b, 0x06, 0xfa, 0x03, 0xf9, 0xfb, 0x07, 0x1b, 0xfa, 0xf4,
  0x01, 0xef, 0xfb, 0x18, 0xf8, 0xfa, 0x14, 0x07, 0xf0, 0xed, 0xf5, 0x10,
  0xf3, 0x02, 0xf2, 0xf6, 0xe5, 0xf7, 0x04, 0x0c, 0x08, 0xfe, 0x01, 0xf4,
  0xef, 0xee, 0xf7, 0xec, 0x09, 0x01, 0xe6, 0x0f, 0x04, 0xdf, 0xef, 0x04,
  0xe5, 0x0e, 0xf9, 0xf2, 0x03, 0xfe, 0x11, 0x08, 0xfa, 0x04, 0x01, 0x06,
  0xfa, 0x08, 0x0e, 0xfc, 0x13, 0x12, 0xfc, 0xf1, 0x03, 0x08, 0x0c, 0x13,
  0x0a, 0x0c, 0x07, 0x01, 0x16, 0xe5, 0xfe, 0x04, 0x0e, 0x0d, 0xf6, 0x09,
  0x11, 0xf6, 0x09, 0x17, 0xfa, 0xec, 0x00, 0xe7, 0x0b, 0xf3, 0xfa, 0xf0,
  0xf6, 0xff, 0x05, 0xed, 0x03, 0x18, 0xfe, 0x00, 0xed, 0x08, 0xf2, 0xff,
  0xfe, 0xf6, 0x08, 0xfd, 0x0a, 0x02, 0x1b, 0xf8, 0x0c, 0x01, 0xf5, 0xf9,
  0x12, 0xfc, 0x17, 0x1a, 0xf5, 0xf8, 0xf7, 0x0e, 0x0a, 0xee, 0x0b, 0xf7,
  0xfa, 0xfc, 0xfb, 0xfb, 0x0d, 0x15, 0xeb, 0x0b, 0xfa, 0x0b, 0xf5, 0xfa,
  0x09, 0x0f, 0x09, 0x14, 0xf0, 0xef, 0xf4, 0xfd, 0x10, 0xf2, 0x15, 0xf5,
  0xf4, 0xf2, 0x18, 0xf8, 0xfb, 0x04, 0x11, 0xe0, 0xea, 0xee, 0xf1, 0xf8,
  0x0c, 0x11, 0x02, 0xf8, 0xe9, 0xfb, 0xfe, 0xf6, 0xf7, 0x00, 0x00, 0xe6,
  0xf2, 0xed, 0x13, 0xed, 0xf1, 0x02, 0xe4, 0x13, 0x06, 0xe7, 0x09, 0xec,
  0x05, 0x11, 0x39, 0xe4, 0x12, 0x11, 0x28, 0x10, 0xe2, 0xfb, 0x26, 0xf8,
  0x1d, 0x0c, 0x19, 0xf0, 0xf9, 0x0d, 0x0e, 0x30, 0x09, 0xf7, 0xfe, 0xfb,
  0x1b, 0xf5, 0x1d, 0xdd, 0x05, 0x09, 0xe0, 0x17, 0xf3, 0xde, 0x01, 0x00,
  0x04, 0x12, 0x8b, 0x04, 0x15, 0xf4, 0x3c, 0xd6, 0xde, 0x04, 0xf4, 0x01,
  0xfe, 0xec, 0xf6, 0x12, 0x14, 0x07, 0x03, 0x01, 0x04, 0xf1, 0xd9, 0xf4,
  0x11, 0xed, 0x13, 0xf9, 0x0c, 0x0f, 0x15, 0xfe, 0xf6, 0x11, 0x11, 0xef,
  0x15, 0xee, 0xf9, 0xfb, 0x0c, 0x09, 0x17, 0xfa, 0x02, 0x02, 0xfd, 0x08,
  0xf8, 0xf2, 0x13, 0xf7, 0xfb, 0x05, 0x00, 0x15, 0x10, 0xf2, 0x14, 0xed,
  0x16, 0x5e, 0xd7, 0x0e, 0xf6, 0xef, 0xee, 0xf9, 0xd9, 0xf0, 0x01, 0x08,
  0xcb, 0x1a, 0x17, 0xf6, 0x54, 0xf9, 0xa9, 0x03, 0x02, 0x00, 0xec, 0x33,
  0xf8, 0x03, 0x25, 0x08, 0x1b, 0x45, 0xfb, 0xe9, 0x15, 0xdb, 0x11, 0xe4,
  0x19, 0x1b, 0xf8, 0xff, 0x03, 0xf1, 0xfc, 0xfc, 0x0c, 0x0c, 0xfb, 0x08,
  0x17, 0xf3, 0x0a, 0xfa, 0x0b, 0x02, 0xfb, 0x0c, 0x0a, 0x00, 0xf8, 0x0a,
  0x0f, 0xe5, 0xfc, 0xf7, 0xff, 0x07, 0xf7, 0xfc, 0xfc, 0x06, 0xef, 0xec,
  0x13, 0x09, 0xff, 0xfb, 0x09, 0x08, 0x0e, 0xfc, 0x16, 0xf4, 0x1b, 0x15,
  0x06, 0x03, 0x11, 0x06, 0x00, 0xf6, 0x08, 0xef, 0xfc, 0x07, 0xe8, 0x02,
  0xfd, 0xf5, 0xe8, 0xf2, 0x01, 0xf9, 0xfc, 0x01, 0xf8, 0xfe, 0x02, 0xe5,
  0x18, 0x1a, 0x04, 0x0d, 0x01, 0x02, 0x05, 0xed, 0x06, 0xfb, 0x08, 0x0d,
  0x04, 0xe5, 0x0c, 0xfd, 0x04, 0x0e, 0x06, 0xe8, 0xfc, 0xee, 0x06, 0xf5,
  0xf7, 0x0b, 0x04, 0xef, 0x01, 0x0b, 0xe4, 0xf8, 0xe9, 0xf6, 0xf3, 0x07,
  0x0c, 0xe3, 0x01, 0xe3, 0xe5, 0x12, 0x05, 0xf1, 0xff, 0xe0, 0xf2, 0x00,
  0xf3, 0x0e, 0x03, 0xf6, 0x34, 0x04, 0x0a, 0x18, 0x11, 0x03, 0x25, 0x19,
  0x15, 0x10, 0x10, 0xfc, 0xf9, 0xf4, 0x1d, 0x20, 0x03, 0x00, 0xe5, 0xf9,
  0x12, 0xf5, 0x05, 0xf2, 0x00, 0x14, 0x0d, 0xf9, 0x02, 0x0a, 0xf3, 0xfb,
  0x07, 0x0f, 0x14, 0x0f, 0xfa, 0x15, 0xfa, 0xf7, 0xf7, 0x09, 0x0b, 0xfc,
  0x10, 0x11, 0x0d, 0x05, 0x10, 0xf9, 0x0c, 0xf3, 0x0c, 0x07, 0xee, 0x00,
  0x09, 0x03, 0xfb, 0x11, 0x00, 0xfd, 0xfc, 0xf0, 0x02, 0x09, 0xff, 0x09,
  0x01, 0x06, 0xe9, 0xf7, 0x05, 0x03, 0xf8, 0xf2, 0xf1, 0xff, 0x0a, 0x05,
  0x0a, 0xea, 0x07, 0x0f, 0x0d, 0x0f, 0x05, 0xff, 0xf1, 0xe7, 0xe9, 0xf0,
  0x17, 0xd6, 0x15, 0xc5, 0xfe, 0x01, 0xfb, 0xef, 0xdc, 0xdb, 0x23, 0x35,
  0xdf, 0x0d, 0xc9, 0xf6, 0x12, 0x27, 0x28, 0xec, 0x39, 0xee, 0x97, 0x02,
  0xed, 0xfb, 0x24, 0x1d, 0x1f, 0x10, 0xd5, 0xea, 0x0d, 0x09, 0xe6, 0xfa,
  0x12, 0x16, 0x07, 0xe5, 0x0e, 0xfc, 0x09, 0xec, 0x12, 0x1b, 0x09, 0xf9,
  0xf6, 0xff, 0x0d, 0xfe, 0xf4, 0x0c, 0x07, 0xeb, 0x02, 0x05, 0xe8, 0xfa,
  0xee, 0x0e, 0x07, 0xe9, 0xfe, 0xf6, 0xfd, 0x0b, 0xf9, 0x05, 0x02, 0xed,
  0xf2, 0xde, 0xfb, 0xec, 0xf1, 0x08, 0xf1, 0x00, 0xff, 0xf5, 0xff, 0x05,
  0x09, 0xf7, 0xea, 0xf8, 0x06, 0x05, 0x24, 0x12, 0x14, 0xef, 0x0c, 0x00,
  0xfe, 0xe2, 0xfb, 0x07, 0x0b, 0xef, 0x05, 0x03, 0xef, 0xfb, 0xdb, 0x05,
  0x05, 0x0c, 0x18, 0xf8, 0x00, 0xf3, 0x14, 0x03, 0x12, 0x0a, 0x19, 0xfe,
  0xff, 0xf9, 0xfe, 0xf6, 0xf7, 0x09, 0x18, 0x14, 0xfa, 0xea, 0xe8, 0xfc,
  0xf1, 0x00, 0xef, 0x00, 0x02, 0x05, 0xf7, 0xfd, 0xe5, 0xf5, 0x01, 0xfe,
  0xf1, 0xec, 0xf4, 0xe3, 0xee, 0x07, 0xf1, 0xf5, 0xed, 0xf9, 0xf7, 0x05,
  0x01, 0x0c, 0x0d, 0xe2, 0xf6, 0xfa, 0x19, 0xff, 0x0d, 0x12, 0x0e, 0xf1,
  0x04, 0xe9, 0xfd, 0x15, 0xfd, 0xeb, 0x13, 0xf4, 0x14, 0xf8, 0x05, 0x0d,
  0xe7, 0xf6, 0x07, 0xf1, 0x05, 0x09, 0xf6, 0x05, 0xe7, 0xf1, 0xf6, 0x11,
  0xe3, 0x12, 0x11, 0xfe, 0xf2, 0xfe, 0xf7, 0x17, 0x12, 0x06, 0x19, 0xe5,
  0xfc, 0x0d, 0xf4, 0x08, 0x0e, 0x0a, 0xf5, 0xf0, 0x14, 0x0f, 0xff, 0xf4,
  0x0a, 0x02, 0xed, 0xec, 0x0b, 0xf1, 0xe3, 0xfe, 0x06, 0x04, 0x0f, 0x15,
  0xfc, 0xef, 0xe7, 0xfe, 0x0a, 0xff, 0x09, 0x12, 0xfc, 0x06, 0xfa, 0xf9,
  0xfb, 0xed, 0x05, 0x10, 0x15, 0x0b, 0xf3, 0xfa, 0xf9, 0x0f, 0xef, 0x0d,
  0x1c, 0x0f, 0x0e, 0x0a, 0x04, 0xff, 0xfa, 0xed, 0xf4, 0xfa, 0xf5, 0xf7,
  0xfb, 0x05, 0x0e, 0x0e, 0xf3, 0xfd, 0x06, 0x02, 0x16, 0xf1, 0x05, 0x03,
  0xfe, 0x0b, 0xec, 0xf6, 0xe9, 0x1d, 0xf4, 0xfc, 0x03, 0xeb, 0xf7, 0xef,
  0xfd, 0x06, 0x14, 0xf8, 0x18, 0x09, 0x08, 0xf1, 0xfb, 0x05, 0x10, 0x0e,
  0x0d, 0x0a, 0xeb, 0x10, 0x0d, 0xf2, 0x0e, 0xfc, 0xf6, 0xf3, 0xf6, 0xf4,
  0xfe, 0x01, 0x02, 0xf4, 0xe8, 0xf6, 0xe7, 0xfd, 0xf7, 0x05, 0xe9, 0x01,
  0x29, 0x08, 0x22, 0xf9, 0x1b, 0xdf, 0x0d, 0xf9, 0x2a, 0xf6, 0x05, 0x0a,
  0xf5, 0x0a, 0x22, 0xfc, 0x0b, 0x16, 0xf8, 0xf9, 0x09, 0x0c, 0xf5, 0x03,
  0x04, 0x10, 0xec, 0xf1, 0xfe, 0x1c, 0xf4, 0xfe, 0x0f, 0x06, 0xfe, 0x12,
  0x05, 0x07, 0x0d, 0xf2, 0x06, 0xff, 0x06, 0xf9, 0xfe, 0x0e, 0x11, 0xf4,
  0x0f, 0xf9, 0x10, 0xfc, 0x12, 0x06, 0x10, 0x0e, 0x02, 0xed, 0xf9, 0x0c,
  0xfd, 0xeb, 0xf3, 0xf4, 0x01, 0xed, 0x06, 0x09, 0xef, 0xf4, 0xee, 0x09,
  0x00, 0x11, 0x0d, 0x10, 0xfd, 0x0e, 0x0d, 0xec, 0x02, 0x12, 0x09, 0x06,
  0xf3, 0x00, 0xf2, 0x0f, 0xfb, 0x06, 0x12, 0x0b, 0xf3, 0xf2, 0xfd, 0xf2,
  0xf6, 0xf0, 0xf5, 0x03, 0x11, 0xf6, 0xf9, 0x10, 0x09, 0xec, 0xef, 0xeb,
  0x01, 0xef, 0x03, 0x00, 0xff, 0x09, 0x0c, 0x19, 0x22, 0x04, 0x0e, 0xf1,
  0x02, 0xee, 0x24, 0xf2, 0x13, 0xf5, 0x2b, 0xc1, 0x10, 0xfc, 0x0e, 0x12,
  0x1c, 0xdf, 0xfa, 0xff, 0x05, 0xe4, 0x07, 0x16, 0xf3, 0xe1, 0x0d, 0xf8,
  0xf3, 0x1b, 0xf9, 0x06, 0x0a, 0x13, 0x1a, 0x03, 0xf5, 0xf2, 0x1a, 0xfd,
  0x08, 0xeb, 0xfb, 0x10, 0xf5, 0xf5, 0xf9, 0x14, 0x16, 0xeb, 0xfb, 0xfe,
  0xec, 0xfd, 0x19, 0xfa, 0xf0, 0x03, 0xf2, 0x1b, 0xf1, 0xf7, 0xf2, 0xef,
  0xe7, 0xf5, 0xeb, 0xe0, 0xe8, 0x0b, 0xe7, 0xf7, 0xe4, 0xeb, 0xf1, 0x09,
  0xf7, 0xff, 0xf6, 0x06, 0x08, 0xf8, 0x0a, 0x0f, 0x19, 0x09, 0x04, 0xf0,
  0x08, 0xf3, 0xf8, 0xf0, 0x1e, 0xfb, 0x12, 0xff, 0xf2, 0xfb, 0x07, 0x0d,
  0x2d, 0xf5, 0x24, 0x06, 0x1a, 0x0b, 0x26, 0xee, 0x16, 0xe7, 0x14, 0x28,
  0x35, 0xf8, 0x1c, 0x17, 0x02, 0xec, 0x04, 0x04, 0x09, 0x0a, 0xfa, 0x0b,
  0x03, 0xda, 0xf2, 0xe3, 0xea, 0x0a, 0xf4, 0x07, 0x08, 0x09, 0xf0, 0xfc,
  0xef, 0x00, 0xfd, 0x04, 0x03, 0x02, 0xe8, 0xfc, 0xf9, 0xdf, 0xed, 0x05,
  0xf5, 0x19, 0xfa, 0xe3, 0x05, 0xfa, 0x04, 0x0a, 0x02, 0xfb, 0x01, 0x09,
  0x11, 0x17, 0x1c, 0x14, 0x0f, 0xe9, 0xf7, 0xef, 0x15, 0xf1, 0xfc, 0x15,
  0x1e, 0xed, 0x2a, 0x03, 0x07, 0xe4, 0xed, 0x0e, 0x09, 0x14, 0xfc, 0xef,
  0x27, 0xde, 0x02, 0xdf, 0xff, 0x10, 0x1c, 0x81, 0x00, 0x1a, 0xc6, 0x02,
  0x13, 0x02, 0x13, 0xf2, 0x06, 0xe8, 0xdf, 0xf5, 0xf0, 0xf1, 0x00, 0x04,
  0x0f, 0xfd, 0xfa, 0x00, 0x11, 0x0c, 0x17, 0xf8, 0x14, 0x08, 0xf8, 0xee,
  0xfa, 0xf7, 0x09, 0x05, 0xf5, 0x07, 0xf6, 0xf7, 0x00, 0xe6, 0xf9, 0xf6,
  0xfd, 0x0d, 0xf8, 0xfa, 0x05, 0x04, 0x0e, 0xf1, 0xe5, 0x04, 0xfa, 0xf7,
  0xf4, 0xe2, 0xed, 0x07, 0xfe, 0x0d, 0xeb, 0xf7, 0xf4, 0xe9, 0xf0, 0x01,
  0xed, 0x05, 0x0d, 0xe5, 0x06, 0x0f, 0x0f, 0xfe, 0xf7, 0x11, 0xf9, 0xe5,
  0xfb, 0x0b, 0x16, 0xf7, 0xff, 0x12, 0x17, 0xe9, 0xfd, 0xfd, 0x00, 0x0d,
  0xee, 0xef, 0x00, 0xf1, 0xf8, 0x16, 0x05, 0x0b, 0x03, 0xf0, 0xf1, 0x02,
  0xf9, 0x07, 0x10, 0xea, 0x21, 0x15, 0xfa, 0x14, 0x09, 0x16, 0xff, 0x02,
  0x07, 0x17, 0xfe, 0xf3, 0x18, 0xfa, 0x0f, 0x0d, 0xed, 0x0d, 0xfe, 0x11,
  0xff, 0x07, 0xf4, 0x08, 0x14, 0xf1, 0xfb, 0xf0, 0xff, 0xf9, 0x1b, 0xf7,
  0x1c, 0xff, 0xfc, 0x02, 0x16, 0x09, 0xf6, 0xf2, 0xf6, 0xed, 0xfb, 0x08,
  0xed, 0x05, 0xf1, 0x05, 0x0b, 0x00, 0xfb, 0x0a, 0xf7, 0xe4, 0xe2, 0x02,
  0xfc, 0xee, 0x0d, 0xf2, 0xec, 0x0e, 0xe7, 0x12, 0x04, 0xe8, 0xfd, 0xfa,
  0xf8, 0xfa, 0x0f, 0xe0, 0xf3, 0x0b, 0x10, 0xf5, 0x19, 0x08, 0x01, 0x0d,
  0xf1, 0xfa, 0xf0, 0xf4, 0x0c, 0x09, 0x07, 0x03, 0x05, 0x05, 0x04, 0xee,
  0xee, 0x19, 0xf2, 0x0b, 0xee, 0x06, 0x0a, 0xf9, 0xdd, 0xfd, 0x15, 0x02,
  0xf4, 0x1a, 0x21, 0x08, 0x20, 0x20, 0xf9, 0x08, 0x29, 0x01, 0x10, 0xf4,
  0xfd, 0xf2, 0x07, 0x0d, 0xfa, 0x0a, 0xf2, 0xfb, 0xf1, 0xfa, 0xf4, 0xfb,
  0x06, 0xfd, 0xff, 0xfc, 0x12, 0x03, 0xfd, 0x05, 0x13, 0x11, 0x05, 0xfa,
  0x0f, 0xec, 0x11, 0x0a, 0xde, 0x0e, 0xeb, 0x09, 0xef, 0xf9, 0x01, 0xe5,
  0xed, 0x09, 0x03, 0x03, 0xf1, 0xeb, 0x1d, 0x0e, 0x08, 0xef, 0x12, 0x14,
  0x0d, 0xf8, 0xfa, 0x01, 0x0d, 0x03, 0xfd, 0xf7, 0x01, 0x04, 0x15, 0x09,
  0x0b, 0x03, 0x19, 0x0f, 0x04, 0xf9, 0x00, 0xf6, 0xf3, 0x03, 0xff, 0x17,
  0xf4, 0x05, 0xed, 0x08, 0xfb, 0x06, 0xe5, 0x02, 0x01, 0xfb, 0x09, 0xe6,
  0x0f, 0x11, 0xee, 0x00, 0x0d, 0xf1, 0xf5, 0x02, 0x0c, 0x09, 0x03, 0xf4,
  0x0b, 0xf2, 0xf2, 0xff, 0xf0, 0x0a, 0x02, 0x0a, 0x0e, 0xef, 0xf6, 0x10,
  0xf0, 0x09, 0xfb, 0x14, 0x11, 0xec, 0xf4, 0xf3, 0x0e, 0xf3, 0x13, 0xfb,
  0x00, 0xf8, 0x00, 0x08, 0xe7, 0x0d, 0xea, 0x15, 0x06, 0xe4, 0xee, 0xee,
  0x03, 0x06, 0x06, 0x06, 0x0d, 0xec, 0xfb, 0x00, 0x02, 0xef, 0xf4, 0x08,
  0xf3, 0xff, 0x11, 0x12, 0x01, 0xef, 0x0e, 0xef, 0x14, 0x0e, 0x0e, 0x11,
  0x0d, 0xe6, 0xfa, 0xeb, 0xfe, 0xfb, 0xe0, 0x0b, 0x13, 0xe4, 0xf5, 0xeb,
  0x16, 0xf7, 0xeb, 0x07, 0x1c, 0xf3, 0x4d, 0xf0, 0xff, 0x0e, 0x1c, 0xe9,
  0xf9, 0xff, 0xeb, 0xff, 0x08, 0xef, 0x08, 0xff, 0xfd, 0x2f, 0xe5, 0xf2,
  0xf8, 0x07, 0xf5, 0x07, 0x0d, 0xf2, 0x00, 0xfe, 0x15, 0xfd, 0x09, 0xec,
  0x17, 0xf1, 0x0b, 0xf5, 0x0d, 0x15, 0xf0, 0x0b, 0xfb, 0xf9, 0x0a, 0x17,
  0x0c, 0x13, 0xeb, 0x02, 0xf3, 0x09, 0x0b, 0xf2, 0xf0, 0xe5, 0xe7, 0xed,
  0x11, 0xfb, 0xfa, 0xf1, 0x1c, 0x00, 0x03, 0xee, 0x17, 0x18, 0x0b, 0x08,
  0x0a, 0xf6, 0xf6, 0x0f, 0x0a, 0x0a, 0x06, 0xef, 0x0b, 0x0a, 0x00, 0x07,
  0xf5, 0xf3, 0x0e, 0xeb, 0xf4, 0x18, 0xff, 0xf2, 0x07, 0x0d, 0xed, 0xfa,
  0xf2, 0xff, 0xf3, 0x0a, 0x14, 0x07, 0x15, 0xfe, 0x05, 0x08, 0xfa, 0xff,
  0x12, 0xe7, 0x0b, 0x1a, 0xf4, 0xf9, 0xfb, 0xfd, 0xf8, 0x04, 0x13, 0x05,
  0xfd, 0xf1, 0xea, 0xed, 0xe9, 0xfd, 0xe8, 0xfc, 0x03, 0x03, 0xf1, 0xff,
  0x18, 0xf5, 0x0f, 0xfc, 0x13, 0x06, 0xe6, 0x0e, 0x02, 0x0b, 0x05, 0x03,
  0xf9, 0x0d, 0x09, 0x1b, 0x05, 0x13, 0x01, 0x04, 0xfb, 0xed, 0xe9, 0x04,
  0xee, 0xff, 0x05, 0xf5, 0x02, 0x0d, 0xf5, 0xf3, 0xeb, 0xe5, 0xee, 0x05,
  0x16, 0x00, 0x14, 0x0c, 0xfb, 0x04, 0x1b, 0x13, 0x09, 0x13, 0x00, 0x00,
  0x04, 0x11, 0xfc, 0x01, 0xf7, 0x04, 0xe1, 0xff, 0xfd, 0x05, 0xcc, 0xf1,
  0xfd, 0xf3, 0xea, 0x0b, 0xf2, 0x07, 0xf0, 0xd5, 0xf6, 0xf4, 0xf3, 0x11,
  0xf9, 0x1e, 0x15, 0x1c, 0xfc, 0xeb, 0x16, 0xfb, 0x1d, 0xfb, 0x0d, 0xfa,
  0x08, 0xf8, 0x05, 0xf7, 0xf2, 0xfc, 0x00, 0xf1, 0xe2, 0xf9, 0x0a, 0x05,
  0xe6, 0x04, 0x01, 0xfc, 0x06, 0x07, 0xff, 0x18, 0xfb, 0xed, 0xff, 0xf3,
  0x02, 0xd5, 0x09, 0x09, 0xec, 0x00, 0xe8, 0xd3, 0xeb, 0xf0, 0xe8, 0x1f,
  0xf7, 0x11, 0xc3, 0xe8, 0xfe, 0xff, 0x04, 0x03, 0x22, 0xf8, 0x15, 0x12,
  0x03, 0x08, 0x12, 0xf2, 0x18, 0x09, 0xed, 0xe5, 0xef, 0x13, 0xe7, 0xe3,
  0x15, 0x1b, 0xfe, 0x03, 0x01, 0xfb, 0x0c, 0xe9, 0x0b, 0x01, 0x01, 0x11,
  0xf3, 0xed, 0x0f, 0x12, 0x04, 0xf2, 0x0f, 0xe8, 0xf4, 0xfa, 0xeb, 0xf6,
  0xfd, 0xef, 0x04, 0xf4, 0xf1, 0x04, 0x03, 0x02, 0x0e, 0x0c, 0xeb, 0xfb,
  0x01, 0x29, 0x0b, 0x0a, 0x17, 0xf8, 0xfc, 0xfe, 0x08, 0xf0, 0x25, 0xed,
  0x0c, 0x03, 0x0d, 0x0d, 0xf8, 0x1d, 0xdc, 0x18, 0xfe, 0x05, 0xe0, 0xf3,
  0x0a, 0xf1, 0x0c, 0xe8, 0xfa, 0x02, 0x20, 0x22, 0xfd, 0xfd, 0x14, 0x18,
  0x08, 0xf1, 0xf0, 0xf1, 0xfa, 0xf7, 0x02, 0x05, 0x0a, 0xe1, 0x02, 0xfe,
  0xf0, 0x07, 0xf3, 0xfe, 0x06, 0xf8, 0xfe, 0x17, 0x03, 0x0c, 0x0d, 0xe6,
  0xf0, 0xf7, 0xf9, 0x09, 0x1c, 0x02, 0x10, 0x12, 0x05, 0x09, 0xf9, 0x09,
  0xf8, 0xf1, 0xf6, 0x0b, 0xf1, 0xea, 0xf6, 0x0d, 0x1a, 0xee, 0x04, 0xca,
  0x0b, 0xe4, 0x06, 0x0c, 0x27, 0xf1, 0x1a, 0xfc, 0x17, 0x18, 0x0f, 0xfb,
  0x07, 0xf4, 0x12, 0xeb, 0x11, 0x03, 0x02, 0xfa, 0x02, 0x17, 0xe8, 0x1d,
  0x16, 0x14, 0x0d, 0x11, 0x07, 0x0a, 0x10, 0xf6, 0x04, 0xfc, 0x0c, 0xef,
  0xf1, 0xf7, 0xfe, 0xfc, 0xe7, 0x05, 0x01, 0x0b, 0xf9, 0xf6, 0x09, 0x0d,
  0xfd, 0xea, 0x08, 0xed, 0x04, 0x17, 0xe3, 0x0b, 0x05, 0x00, 0xf1, 0xfc,
  0x0e, 0xf6, 0xeb, 0xe5, 0xe6, 0xf0, 0x0c, 0xef, 0xff, 0xf9, 0x02, 0xfd,
  0xea, 0x1a, 0xff, 0x05, 0x18, 0xfe, 0x1b, 0x17, 0x15, 0xf4, 0x0a, 0xf1,
  0xf3, 0x04, 0x16, 0x14, 0x07, 0xee, 0xf3, 0x0a, 0x14, 0xeb, 0xeb, 0x13,
  0x00, 0xf4, 0xeb, 0xf2, 0xef, 0x00, 0x01, 0xf0, 0xea, 0xf2, 0xfa, 0x03,
  0xf1, 0x0d, 0xf3, 0xe2, 0xed, 0x14, 0xf2, 0xf0, 0x07, 0x07, 0x1b, 0xe7,
  0x01, 0x02, 0x06, 0xff, 0x22, 0xec, 0x18, 0xef, 0x04, 0x0a, 0xe8, 0x06,
  0x19, 0x11, 0x0e, 0x04, 0x11, 0xf5, 0x08, 0xe7, 0x11, 0x0b, 0x0e, 0x06,
  0x0f, 0xfd, 0xf8, 0xfa, 0xff, 0x00, 0x04, 0x00, 0xfc, 0xfb, 0xfc, 0x16,
  0x08, 0xe9, 0x0a, 0x09, 0xec, 0xfb, 0xec, 0xff, 0x08, 0xfe, 0x01, 0xf1,
  0x10, 0x10, 0x14, 0x04, 0x11, 0xeb, 0x12, 0x0e, 0xf2, 0xfb, 0xfd, 0xf8,
  0x0d, 0xf4, 0x0c, 0x06, 0x0b, 0xfd, 0xef, 0xeb, 0xf1, 0xeb, 0xeb, 0xfe,
  0xff, 0xf1, 0xfb, 0xf5, 0xf1, 0x0c, 0x08, 0x0f, 0x06, 0x01, 0xf0, 0xfe,
  0xfa, 0xfe, 0x0b, 0xfe, 0x14, 0x03, 0x15, 0xf3, 0xf8, 0x01, 0x0b, 0x0b,
  0x10, 0x09, 0xf0, 0xfe, 0x03, 0x04, 0xf5, 0xf2, 0x09, 0xe4, 0x07, 0x11,
  0xf6, 0xee, 0xfb, 0xfc, 0xe4, 0xfe, 0xeb, 0x0d, 0xed, 0xe4, 0x04, 0x03,
  0x11, 0x00, 0x0f, 0xfc, 0xf5, 0xeb, 0xfc, 0x0d, 0xf2, 0xeb, 0xf2, 0xfd,
  0xf6, 0xfe, 0xe3, 0x0e, 0x02, 0xea, 0x05, 0xf2, 0xf6, 0x09, 0xef, 0x0c,
  0x05, 0xe1, 0x07, 0x1b, 0x09, 0x03, 0xff, 0x04, 0xf9, 0x01, 0xfb, 0xec,
  0xeb, 0x0b, 0xe8, 0xf3, 0xf9, 0xf9, 0xff, 0x10, 0xe4, 0xf6, 0x12, 0xec,
  0x01, 0x12, 0x0a, 0xe7, 0x15, 0xfb, 0x05, 0x0f, 0xf4, 0x15, 0x0e, 0xe7,
  0x06, 0xf7, 0xfd, 0x06, 0xf9, 0xec, 0x06, 0x0a, 0x05, 0x02, 0xf7, 0xf3,
  0x19, 0x00, 0xf2, 0xf3, 0x09, 0xf6, 0xfb, 0xe7, 0xf8, 0x04, 0xfd, 0x07,
  0x0f, 0xff, 0x06, 0x0a, 0x00, 0xfc, 0x17, 0xf8, 0x07, 0xf4, 0xf0, 0x0b,
  0x0d, 0xf7, 0xfe, 0xfa, 0xef, 0x0a, 0xe6, 0x17, 0xf8, 0xfc, 0xf5, 0xe7,
  0x0c, 0xf6, 0x0f, 0xed, 0x12, 0xf3, 0xf2, 0xf4, 0x15, 0x09, 0xfc, 0xf4,
  0x02, 0xff, 0x09, 0x08, 0xfd, 0x08, 0x11, 0xe5, 0x0e, 0x02, 0xfd, 0xea,
  0x04, 0x09, 0x0c, 0x0d, 0xf1, 0x16, 0xef, 0x05, 0xfc, 0xf7, 0x03, 0xfc,
  0x1d, 0x00, 0x1c, 0x0f, 0xf9, 0xf4, 0x00, 0x07, 0x00, 0x19, 0x02, 0xfd,
  0xfb, 0xe6, 0xf6, 0xff, 0xf4, 0x19, 0x03, 0xf3, 0x0f, 0xe2, 0xff, 0x04,
  0x0a, 0xf0, 0x09, 0xf3, 0xed, 0x06, 0xf6, 0xf9, 0x00, 0xfb, 0xef, 0x04,
  0xf7, 0x03, 0xf8, 0xfb, 0x03, 0x0a, 0xfe, 0xe3, 0x01, 0x0f, 0xfb, 0x09,
  0x1e, 0xfd, 0x13, 0x11, 0x0c, 0xfc, 0x11, 0xe7, 0xee, 0xe2, 0x08, 0x13,
  0xe5, 0x02, 0xf7, 0xff, 0x00, 0x0a, 0xfd, 0xfc, 0xfe, 0xf4, 0xec, 0xf6,
  0x09, 0x10, 0x08, 0x02, 0x03, 0x0a, 0x10, 0x0b, 0x02, 0xf2, 0xf8, 0x10,
  0xff, 0xf0, 0x0a, 0x0e, 0xfd, 0x06, 0x17, 0x09, 0xf5, 0xfb, 0x09, 0xf6,
  0xe8, 0xf7, 0xec, 0xf1, 0xe7, 0xfe, 0x07, 0x0d, 0xe6, 0xea, 0x08, 0xfe,
  0x15, 0x12, 0xfb, 0x09, 0x07, 0xee, 0x0a, 0xed, 0x01, 0xef, 0x06, 0x0a,
  0x07, 0xf0, 0xee, 0x0a, 0x05, 0x01, 0xfa, 0xf7, 0x01, 0x0f, 0xeb, 0x04,
  0xee, 0xfd, 0x08, 0xec, 0xfb, 0x02, 0x01, 0xef, 0xf2, 0xec, 0x13, 0xfa,
  0x02, 0x16, 0xf7, 0x2d, 0xf9, 0xfb, 0x0d, 0xfd, 0x02, 0x01, 0xf4, 0x0a,
  0x05, 0x08, 0x14, 0xeb, 0x01, 0x10, 0xfd, 0x12, 0x1f, 0x07, 0x1d, 0xef,
  0xef, 0xfa, 0xf6, 0xe7, 0x09, 0xfa, 0x05, 0x12, 0xf6, 0xee, 0x00, 0x09,
  0x0c, 0x10, 0x0d, 0x04, 0x00, 0xef, 0x11, 0x00, 0xf6, 0xf6, 0x0c, 0xf1,
  0xf3, 0x11, 0x04, 0x15, 0x14, 0xee, 0xf2, 0x0e, 0x12, 0x09, 0xeb, 0xfb,
  0x00, 0xfc, 0xfa, 0xec, 0x00, 0x0e, 0x04, 0xef, 0xfd, 0x03, 0xf2, 0x0c,
  0x0f, 0x1a, 0x06, 0x01, 0x14, 0xfe, 0x0c, 0xe8, 0x05, 0x0c, 0x14, 0xf4,
  0xfb, 0xf6, 0x0e, 0x07, 0x0a, 0x04, 0xf3, 0x04, 0xe7, 0xf9, 0xf7, 0x02,
  0xf7, 0xf7, 0x06, 0x05, 0xf2, 0x17, 0xf2, 0xe7, 0xfd, 0x09, 0xf4, 0xfb,
  0xec, 0xff, 0x0a, 0xee, 0xf1, 0x0a, 0x07, 0x00, 0xfa, 0xe9, 0xf0, 0xfa,
  0x06, 0xfc, 0x17, 0xea, 0xfe, 0xeb, 0x05, 0xfd, 0x08, 0x05, 0x0e, 0xf0,
  0xf7, 0x16, 0xfb, 0xfb, 0x0d, 0xfb, 0x0d, 0xfd, 0x08, 0x03, 0x02, 0x07,
  0x02, 0xfd, 0x13, 0x03, 0x11, 0x07, 0x03, 0xe9, 0x00, 0x0a, 0x15, 0xf6,
  0xf7, 0xf3, 0x1b, 0xf4, 0xfe, 0xfa, 0x18, 0x0a, 0x19, 0xf1, 0xf1, 0x04,
  0xf7, 0x0b, 0xf4, 0xf8, 0xe8, 0x13, 0xf6, 0xf3, 0xf9, 0xf7, 0xf0, 0xee,
  0x02, 0xfc, 0xf6, 0xf4, 0xeb, 0xef, 0xef, 0x13, 0xee, 0xf9, 0xf4, 0x11,
  0xe9, 0x0f, 0xfd, 0x00, 0x06, 0x0b, 0x09, 0xf2, 0x02, 0x02, 0xff, 0xf5,
  0x0e, 0xf0, 0xf2, 0xf9, 0xfe, 0x00, 0x0e, 0xf5, 0x09, 0xfd, 0x07, 0x00,
  0x11, 0xfd, 0xfd, 0x0f, 0x12, 0x07, 0x10, 0xf8, 0xf4, 0xf9, 0xf9, 0xed,
  0xf3, 0x00, 0xf0, 0x03, 0xfe, 0xee, 0x14, 0xf4, 0x05, 0xff, 0x14, 0x13,
  0xfb, 0xf7, 0xf1, 0xf5, 0x0f, 0xec, 0xfa, 0x05, 0xf9, 0x0d, 0x06, 0xef,
  0x11, 0xe2, 0x0d, 0x07, 0xeb, 0x07, 0xef, 0xe1, 0xfc, 0xfb, 0xe0, 0x05,
  0xfc, 0x0c, 0xdc, 0xe0, 0xf8, 0x16, 0xfd, 0x0f, 0x12, 0xff, 0x1d, 0xf3,
  0x06, 0x08, 0x08, 0xff, 0x1e, 0x05, 0xe6, 0x02, 0xf2, 0xf4, 0xec, 0xeb,
  0x07, 0xe9, 0xfb, 0xdf, 0x14, 0xd9, 0xf4, 0x1a, 0x1e, 0x02, 0x17, 0xee,
  0x22, 0x03, 0xa5, 0xf1, 0x2b, 0x05, 0x0d, 0xa7, 0x13, 0x0c, 0x1e, 0x22,
  0x09, 0xdb, 0x09, 0xeb, 0xf8, 0xea, 0xeb, 0x25, 0xdb, 0xfc, 0xf5, 0x0b,
  0x01, 0xff, 0x0e, 0xf8, 0x12, 0xe6, 0xf1, 0x11, 0x1a, 0xf2, 0xf1, 0xde,
  0xf6, 0xf8, 0xe7, 0xf4, 0xff, 0xf5, 0x04, 0xfc, 0xe2, 0x0a, 0xff, 0x07,
  0x17, 0xf9, 0xf6, 0xef, 0xf8, 0xf3, 0x0b, 0xec, 0xfd, 0xeb, 0x04, 0x02,
  0x04, 0xfd, 0x11, 0x0d, 0xf5, 0x01, 0xf5, 0x07, 0x06, 0x12, 0x03, 0xef,
  0xfc, 0x07, 0x02, 0x10, 0x06, 0x03, 0x16, 0xed, 0xf8, 0x02, 0xf5, 0x03,
  0xe3, 0x00, 0x04, 0x02, 0x00, 0x0f, 0x03, 0xf6, 0xe7, 0xe9, 0xee, 0x00,
  0xfc, 0x0e, 0x02, 0x18, 0x09, 0xe1, 0x11, 0xfd, 0xf6, 0x15, 0x14, 0x08,
  0x17, 0x06, 0x08, 0x0d, 0x0b, 0xf5, 0x06, 0xfc, 0xf3, 0x07, 0x06, 0xf6,
  0x00, 0xf3, 0xe5, 0xe4, 0xfd, 0x17, 0xf9, 0xf3, 0x07, 0x03, 0xe9, 0xf4,
  0x0f, 0x04, 0xfe, 0xea, 0xf5, 0xfb, 0x0b, 0x00, 0xf8, 0xf7, 0x0d, 0x08,
  0x1b, 0x0d, 0x0d, 0x1c, 0x1a, 0x02, 0xfa, 0x08, 0x19, 0xea, 0x03, 0xf8,
  0xf1, 0xf2, 0xee, 0xfe, 0xe4, 0x18, 0x02, 0xfb, 0xf9, 0xf8, 0xef, 0xe6,
  0x0c, 0x14, 0xfd, 0xfb, 0x0e, 0x07, 0x01, 0xf7, 0x1a, 0x11, 0x15, 0x05,
  0x10, 0xf5, 0xf7, 0x05, 0xf9, 0x09, 0xf9, 0x06, 0xf2, 0xf5, 0xf5, 0x03,
  0x08, 0x09, 0x01, 0x06, 0xf0, 0x15, 0xf6, 0x08, 0xe8, 0xe4, 0xe5, 0xf1,
  0xf5, 0xf9, 0xe1, 0x0f, 0x00, 0x1e, 0xf1, 0x07, 0x17, 0xf8, 0xf3, 0x0e,
  0xf9, 0x0a, 0x3b, 0xfa, 0x1e, 0x2a, 0x1d, 0x1a, 0x0b, 0xf0, 0x31, 0xf7,
  0x17, 0x16, 0x13, 0xeb, 0xfc, 0xfb, 0x15, 0x04, 0xf6, 0x0c, 0x04, 0xea,
  0xf5, 0x0d, 0x0d, 0x04, 0x13, 0x00, 0xfc, 0xe9, 0x09, 0x05, 0xf5, 0x08,
  0x02, 0xe4, 0x04, 0xfe, 0x0d, 0x04, 0x06, 0xfc, 0x0d, 0xfc, 0xfb, 0xf7,
  0xf3, 0x16, 0xf2, 0xea, 0xfb, 0x09, 0xff, 0x04, 0x0d, 0xf6, 0xee, 0xed,
  0x0e, 0xf8, 0x19, 0x0c, 0x05, 0xe9, 0x17, 0xe9, 0x01, 0xfe, 0x19, 0x18,
  0xf4, 0xed, 0xfb, 0xf5, 0xf8, 0xfe, 0x01, 0x0c, 0xf5, 0xe9, 0x01, 0x05,
  0xea, 0xfc, 0x06, 0xed, 0x0a, 0x11, 0xe3, 0x09, 0x06, 0x0e, 0x0a, 0x07,
  0x09, 0x19, 0xec, 0xe9, 0x09, 0xed, 0xee, 0x0a, 0xe1, 0x17, 0x03, 0xe4,
  0x00, 0xf1, 0xd9, 0x03, 0xea, 0xfd, 0xf8, 0xfc, 0xf6, 0x0e, 0xec, 0xea,
  0xed, 0xe3, 0xe1, 0xe3, 0xdc, 0xe0, 0xee, 0xdb, 0xfe, 0xf7, 0x00, 0x07,
  0xfe, 0x0e, 0xfd, 0xee, 0xfa, 0xfa, 0xf2, 0xf1, 0x0e, 0x12, 0x08, 0xec,
  0x17, 0xeb, 0xee, 0x13, 0x01, 0xf7, 0xfd, 0xf5, 0xe6, 0xf1, 0x0b, 0x12,
  0x0a, 0xfe, 0x04, 0xeb, 0x06, 0xfc, 0xfa, 0xf5, 0xfb, 0x03, 0x0f, 0xfa,
  0x0d, 0x52, 0x12, 0x2d, 0xfc, 0xfd, 0x10, 0xf3, 0xec, 0x0c, 0x03, 0xee,
  0x12, 0x0e, 0x2b, 0xf5, 0xf3, 0x21, 0xb2, 0x01, 0xfa, 0x01, 0x02, 0x03,
  0x0a, 0x06, 0x01, 0x0c, 0x19, 0xf9, 0x0f, 0x10, 0x0b, 0xe3, 0x0f, 0x13,
  0x06, 0xe6, 0xfd, 0xfb, 0x06, 0x0a, 0xed, 0xf4, 0xed, 0xdc, 0xed, 0x1b,
  0xe9, 0xfd, 0x07, 0xea, 0x11, 0x0a, 0x05, 0x12, 0x1e, 0x16, 0x06, 0xf3,
  0x17, 0xf1, 0x12, 0xf2, 0x04, 0xef, 0x09, 0x03, 0xee, 0xfe, 0xf8, 0xfa,
  0xec, 0xe6, 0x09, 0xff, 0xe4, 0xf6, 0x05, 0xf8, 0xe4, 0x03, 0xe7, 0x0a,
  0xe1, 0x06, 0xeb, 0xf8, 0xf4, 0xf4, 0xf0, 0x16, 0x0e, 0xf3, 0x0d, 0xf6,
  0xf7, 0xf1, 0x0e, 0x04, 0x01, 0xfe, 0x17, 0xfc, 0x0e, 0x04, 0xf5, 0x12,
  0xfe, 0x09, 0x01, 0x1c, 0x1d, 0xf8, 0xf4, 0xea, 0x09, 0x09, 0x15, 0x03,
  0x0a, 0xef, 0xf6, 0xf5, 0x0d, 0x0e, 0xf7, 0xf2, 0x11, 0x08, 0x03, 0xf8,
  0xf2, 0xfb, 0xe4, 0xe6, 0xf0, 0x09, 0x04, 0x03, 0x03, 0x0c, 0xfa, 0xeb,
  0xfe, 0x0c, 0x01, 0x05, 0xfc, 0xe3, 0x15, 0x0d, 0xf4, 0x16, 0x08, 0xec,
  0x07, 0xdd, 0x25, 0xeb, 0xe8, 0xf9, 0x02, 0xe3, 0x01, 0xf6, 0xf5, 0xfe,
  0x11, 0xf5, 0xf4, 0xfa, 0x13, 0x13, 0xfc, 0xf6, 0xfe, 0xfd, 0xeb, 0xe8,
  0x0e, 0x09, 0x11, 0xec, 0xfc, 0xee, 0xec, 0x00, 0xf8, 0x0d, 0x0a, 0xf9,
  0xf5, 0xfc, 0xff, 0x13, 0x12, 0xfa, 0xf2, 0x0d, 0x0f, 0xf5, 0xf9, 0x09,
  0xee, 0xfd, 0xf4, 0x0a, 0x07, 0x0f, 0xf8, 0xf0, 0xf3, 0xfa, 0xfb, 0xf4,
  0x0e, 0x05, 0x13, 0x04, 0xfa, 0xf1, 0xff, 0xf1, 0x15, 0x09, 0x00, 0xff,
  0xfd, 0xf5, 0xfb, 0x16, 0xfc, 0xe8, 0x01, 0x0e, 0xfc, 0xff, 0xee, 0xfc,
  0xf0, 0x0a, 0xf2, 0xf9, 0x0d, 0x06, 0x00, 0xed, 0xfe, 0xfd, 0xf5, 0xf2,
  0x01, 0x0b, 0xf8, 0xfd, 0xde, 0x11, 0xfd, 0x12, 0xf1, 0xf2, 0xe7, 0xfd,
  0xf4, 0xfc, 0x12, 0xe4, 0x09, 0x00, 0x1b, 0x0d, 0x13, 0x0e, 0x04, 0x0b,
  0xfe, 0xf2, 0x07, 0xf5, 0x12, 0x04, 0x10, 0xf2, 0x01, 0xeb, 0xf7, 0xfd,
  0x07, 0xfb, 0xf0, 0xf5, 0xf1, 0x15, 0xff, 0x09, 0x05, 0xed, 0x0c, 0x1d,
  0x00, 0x05, 0x02, 0x08, 0xe4, 0x0c, 0xee, 0xfb, 0x02, 0xf4, 0x15, 0x10,
  0x0f, 0x17, 0xed, 0x01, 0x05, 0x12, 0x0c, 0x09, 0xfb, 0xf4, 0x03, 0xf5,
  0xfd, 0x0d, 0x0a, 0x0b, 0x13, 0x05, 0x09, 0xea, 0xf8, 0xfd, 0x06, 0x05,
  0xf7, 0x06, 0x19, 0x0a, 0xfa, 0xfb, 0xf7, 0xf5, 0x08, 0xec, 0x0d, 0xf5,
  0xfd, 0xf9, 0xf1, 0xff, 0xfa, 0x0a, 0xf9, 0x0d, 0xee, 0xf6, 0xe5, 0xef,
  0xf9, 0xff, 0xf0, 0xf5, 0x06, 0xf0, 0xe9, 0xf9, 0xea, 0xec, 0xf6, 0x0c,
  0xe5, 0xff, 0xf8, 0xf6, 0x17, 0x0a, 0x15, 0xf4, 0x1e, 0xfb, 0x0c, 0xe8,
  0x0f, 0xfe, 0x08, 0x08, 0x0e, 0x0b, 0x04, 0xea, 0xed, 0x0b, 0xf6, 0x02,
  0x0e, 0x02, 0x14, 0x0d, 0xf8, 0xf4, 0x1f, 0xe8, 0x05, 0x01, 0x1a, 0x0e,
  0x1d, 0x09, 0x04, 0xfc, 0xf6, 0x01, 0x03, 0x03, 0x09, 0x04, 0xfe, 0x07,
  0xed, 0xf6, 0xe4, 0xee, 0xeb, 0xfa, 0xf9, 0xf9, 0xea, 0x05, 0x04, 0x02,
  0x15, 0x12, 0xfe, 0x05, 0xfd, 0xed, 0x12, 0xfd, 0xf9, 0xec, 0x10, 0xf6,
  0x11, 0xf8, 0xf9, 0x07, 0xf0, 0x09, 0x04, 0x11, 0x14, 0x12, 0x0e, 0xf9,
  0xf7, 0x00, 0xff, 0xef, 0x09, 0x10, 0x00, 0x0a, 0xf5, 0xff, 0xfe, 0xf1,
  0x0a, 0xfc, 0xfa, 0x0c, 0x16, 0xf1, 0x1a, 0xef, 0x08, 0x16, 0xfe, 0xf5,
  0x0d, 0xef, 0x09, 0xfa, 0xe7, 0xf8, 0xed, 0xfe, 0x08, 0x0d, 0xf6, 0xfe,
  0x01, 0x03, 0x08, 0x09, 0xf5, 0x12, 0xfb, 0xf8, 0xf2, 0xf3, 0xf6, 0xea,
  0x02, 0x02, 0xff, 0x0a, 0xf5, 0x0c, 0x06, 0xee, 0x0b, 0x19, 0x11, 0x09,
  0x05, 0xe7, 0xf8, 0x01, 0x07, 0xee, 0x0c, 0xf7, 0xf7, 0xf2, 0xf1, 0x0b,
  0xef, 0xfb, 0x0a, 0x07, 0x0b, 0x15, 0x0d, 0xfd, 0xf1, 0x04, 0x00, 0xed,
  0x17, 0xf3, 0xf3, 0x14, 0x0c, 0x06, 0x19, 0x00, 0x07, 0xf8, 0x1d, 0xf1,
  0x0f, 0xff, 0x0f, 0x19, 0xf6, 0x13, 0xf0, 0xe9, 0xee, 0x0f, 0xf1, 0x1a,
  0xfd, 0xf7, 0x02, 0xfb, 0xed, 0x14, 0x05, 0x0a, 0x0f, 0x01, 0xfd, 0x0f,
  0xf1, 0xfe, 0xfc, 0xf9, 0xfa, 0x09, 0xeb, 0xef, 0xec, 0xed, 0xf6, 0xf5,
  0xe8, 0x0f, 0xf2, 0x06, 0xf9, 0x0a, 0xff, 0x0e, 0xf0, 0x0d, 0x03, 0x0c,
  0x01, 0x17, 0xf1, 0x0b, 0x1c, 0x05, 0x0a, 0x19, 0x07, 0x0e, 0xee, 0xfc,
  0x0a, 0x12, 0x09, 0x10, 0x11, 0xf2, 0xf4, 0xf4, 0x1b, 0x04, 0xfc, 0x02,
  0x12, 0xed, 0x02, 0x18, 0x07, 0x05, 0x02, 0xfd, 0xf6, 0xf1, 0xf1, 0x08,
  0xf1, 0x02, 0xf9, 0xf3, 0x06, 0xfa, 0x0f, 0xf3, 0xf1, 0x0c, 0xec, 0x06,
  0x05, 0xfa, 0x18, 0x16, 0x17, 0xf3, 0xfb, 0xf6, 0x0c, 0xfc, 0x15, 0x0b,
  0x16, 0xea, 0x04, 0x0f, 0x01, 0xf9, 0xee, 0xee, 0xfd, 0xf8, 0x06, 0x05,
  0xfb, 0xfb, 0x09, 0x07, 0xe1, 0xfe, 0xfe, 0x1d, 0xfb, 0xf5, 0xe6, 0x02,
  0x80, 0xff, 0xff, 0xff, 0x84, 0xff, 0xff, 0xff, 0x0f, 0x00, 0x00, 0x00,
  0x4d, 0x4c, 0x49, 0x52, 0x20, 0x43, 0x6f, 0x6e, 0x76, 0x65, 0x72, 0x74,
  0x65, 0x64, 0x2e, 0x00, 0x01, 0x00, 0x00, 0x00, 0x14, 0x00, 0x00, 0x00,
  0x00, 0x00, 0x0e, 0x00, 0x18, 0x00, 0x14, 0x00, 0x10, 0x00, 0x0c, 0x00,
  0x08, 0x00, 0x04, 0x00, 0x0e, 0x00, 0x00, 0x00, 0x14, 0x00, 0x00, 0x00,
  0x1c, 0x00, 0x00, 0x00, 0x14, 0x01, 0x00, 0x00, 0x18, 0x01, 0x00, 0x00,
  0x1c, 0x01, 0x00, 0x00, 0x04, 0x00, 0x00, 0x00, 0x6d, 0x61, 0x69, 0x6e,
  0x00, 0x00, 0x00, 0x00, 0x04, 0x00, 0x00, 0x00, 0xbc, 0x00, 0x00, 0x00,
  0x74, 0x00, 0x00, 0x00, 0x3c, 0x00, 0x00, 0x00, 0x04, 0x00, 0x00, 0x00,
  0x62, 0xff, 0xff, 0xff, 0x14, 0x00, 0x00, 0x00, 0x00, 0x00, 0x00, 0x08,
  0x10, 0x00, 0x00, 0x00, 0x14, 0x00, 0x00, 0x00, 0x04, 0x00, 0x04, 0x00,
  0x04, 0x00, 0x00, 0x00, 0x01, 0x00, 0x00, 0x00, 0x0c, 0x00, 0x00, 0x00,
  0x03, 0x00, 0x00, 0x00, 0x0b, 0x00, 0x00, 0x00, 0x07, 0x00, 0x00, 0x00,
  0x08, 0x00, 0x00, 0x00, 0x96, 0xff, 0xff, 0xff, 0x10, 0x00, 0x00, 0x00,
  0x00, 0x00, 0x00, 0x08, 0x10, 0x00, 0x00, 0x00, 0x14, 0x00, 0x00, 0x00,
  0x86, 0xff, 0xff, 0xff, 0x00, 0x00, 0x00, 0x01, 0x01, 0x00, 0x00, 0x00,
  0x0b, 0x00, 0x00, 0x00, 0x03, 0x00, 0x00, 0x00, 0x0a, 0x00, 0x00, 0x00,
  0x05, 0x00, 0x00, 0x00, 0x06, 0x00, 0x00, 0x00, 0xca, 0xff, 0xff, 0xff,
  0x10, 0x00, 0x00, 0x00, 0x00, 0x00, 0x00, 0x08, 0x10, 0x00, 0x00, 0x00,
  0x14, 0x00, 0x00, 0x00, 0xba, 0xff, 0xff, 0xff, 0x00, 0x00, 0x00, 0x01,
  0x01, 0x00, 0x00, 0x00, 0x0a, 0x00, 0x00, 0x00, 0x03, 0x00, 0x00, 0x00,
  0x09, 0x00, 0x00, 0x00, 0x03, 0x00, 0x00, 0x00, 0x04, 0x00, 0x00, 0x00,
  0x00, 0x00, 0x0e, 0x00, 0x16, 0x00, 0x00, 0x00, 0x10, 0x00, 0x0c, 0x00,
  0x0b, 0x00, 0x04, 0x00, 0x0e, 0x00, 0x00, 0x00, 0x18, 0x00, 0x00, 0x00,
  0x00, 0x00, 0x00, 0x08, 0x18, 0x00, 0x00, 0x00, 0x1c, 0x00, 0x00, 0x00,
  0x00, 0x00, 0x06, 0x00, 0x08, 0x00, 0x07, 0x00, 0x06, 0x00, 0x00, 0x00,
  0x00, 0x00, 0x00, 0x01, 0x01, 0x00, 0x00, 0x00, 0x09, 0x00, 0x00, 0x00,
  0x03, 0x00, 0x00, 0x00, 0x00, 0x00, 0x00, 0x00, 0x01, 0x00, 0x00, 0x00,
  0x02, 0x00, 0x00, 0x00, 0x01, 0x00, 0x00, 0x00, 0x0c, 0x00, 0x00, 0x00,
  0x01, 0x00, 0x00, 0x00, 0x00, 0x00, 0x00, 0x00, 0x0d, 0x00, 0x00, 0x00,
  0xf8, 0x05, 0x00, 0x00, 0x78, 0x05, 0x00, 0x00, 0x0c, 0x05, 0x00, 0x00,
  0xa0, 0x04, 0x00, 0x00, 0x44, 0x04, 0x00, 0x00, 0xd8, 0x03, 0x00, 0x00,
  0x7c, 0x03, 0x00, 0x00, 0x10, 0x03, 0x00, 0x00, 0xb4, 0x02, 0x00, 0x00,
  0xf8, 0x01, 0x00, 0x00, 0x3c, 0x01, 0x00, 0x00, 0x80, 0x00, 0x00, 0x00,
  0x04, 0x00, 0x00, 0x00, 0x50, 0xfa, 0xff, 0xff, 0x18, 0x00, 0x00, 0x00,
  0x20, 0x00, 0x00, 0x00, 0x40, 0x00, 0x00, 0x00, 0x0d, 0x00, 0x00, 0x00,
  0x00, 0x00, 0x00, 0x09, 0x54, 0x00, 0x00, 0x00, 0x02, 0x00, 0x00, 0x00,
  0xff, 0xff, 0xff, 0xff, 0x01, 0x00, 0x00, 0x00, 0x3c, 0xfa, 0xff, 0xff,
  0x08, 0x00, 0x00, 0x00, 0x14, 0x00, 0x00, 0x00, 0x01, 0x00, 0x00, 0x00,
  0x80, 0xff, 0xff, 0xff, 0xff, 0xff, 0xff, 0xff, 0x00, 0x00, 0x00, 0x00,
  0x01, 0x00, 0x00, 0x00, 0xd3, 0xd2, 0x53, 0x3f, 0x19, 0x00, 0x00, 0x00,
  0x53, 0x74, 0x61, 0x74, 0x65, 0x66, 0x75, 0x6c, 0x50, 0x61, 0x72, 0x74,
  0x69, 0x74, 0x69, 0x6f, 0x6e, 0x65, 0x64, 0x43, 0x61, 0x6c, 0x6c, 0x3a,
  0x30, 0x00, 0x00, 0x00, 0x02, 0x00, 0x00, 0x00, 0x01, 0x00, 0x00, 0x00,
  0x01, 0x00, 0x00, 0x00, 0xc8, 0xfa, 0xff, 0xff, 0x18, 0x00, 0x00, 0x00,
  0x20, 0x00, 0x00, 0x00, 0x40, 0x00, 0x00, 0x00, 0x0c, 0x00, 0x00, 0x00,
  0x00, 0x00, 0x00, 0x09, 0x94, 0x00, 0x00, 0x00, 0x02, 0x00, 0x00, 0x00,
  0xff, 0xff, 0xff, 0xff, 0x08, 0x00, 0x00, 0x00, 0xb4, 0xfa, 0xff, 0xff,
  0x08, 0x00, 0x00, 0x00, 0x14, 0x00, 0x00, 0x00, 0x01, 0x00, 0x00, 0x00,
  0x80, 0xff, 0xff, 0xff, 0xff, 0xff, 0xff, 0xff, 0x00, 0x00, 0x00, 0x00,
  0x01, 0x00, 0x00, 0x00, 0xdf, 0x80, 0x2a, 0x3f, 0x58, 0x00, 0x00, 0x00,
  0x73, 0x65, 0x71, 0x75, 0x65, 0x6e, 0x74, 0x69, 0x61, 0x6c, 0x5f, 0x31,
  0x36, 0x2f, 0x64, 0x65, 0x6e, 0x73, 0x65, 0x5f, 0x36, 0x32, 0x2f, 0x4d,
  0x61, 0x74, 0x4d, 0x75, 0x6c, 0x3b, 0x73, 0x65, 0x71, 0x75, 0x65, 0x6e,
  0x74, 0x69, 0x61, 0x6c, 0x5f, 0x31, 0x36, 0x2f, 0x64, 0x65, 0x6e, 0x73,
  0x65, 0x5f, 0x36, 0x32, 0x2f, 0x52, 0x65, 0x6c, 0x75, 0x3b, 0x73, 0x65,
  0x71, 0x75, 0x65, 0x6e, 0x74, 0x69, 0x61, 0x6c, 0x5f, 0x31, 0x36, 0x2f,
  0x64, 0x65, 0x6e, 0x73, 0x65, 0x5f, 0x36, 0x32, 0x2f, 0x42, 0x69, 0x61,
  0x73, 0x41, 0x64, 0x64, 0x00, 0x00, 0x00, 0x00, 0x02, 0x00, 0x00, 0x00,
  0x01, 0x00, 0x00, 0x00, 0x08, 0x00, 0x00, 0x00, 0x80, 0xfb, 0xff, 0xff,
  0x18, 0x00, 0x00, 0x00, 0x20, 0x00, 0x00, 0x00, 0x40, 0x00, 0x00, 0x00,
  0x0b, 0x00, 0x00, 0x00, 0x00, 0x00, 0x00, 0x09, 0x94, 0x00, 0x00, 0x00,
  0x02, 0x00, 0x00, 0x00, 0xff, 0xff, 0xff, 0xff, 0x10, 0x00, 0x00, 0x00,
  0x6c, 0xfb, 0xff, 0xff, 0x08, 0x00, 0x00, 0x00, 0x14, 0x00, 0x00, 0x00,
  0x01, 0x00, 0x00, 0x00, 0x80, 0xff, 0xff, 0xff, 0xff, 0xff, 0xff, 0xff,
  0x00, 0x00, 0x00, 0x00, 0x01, 0x00, 0x00, 0x00, 0xc9, 0xdc, 0xb9, 0x3e,
  0x58, 0x00, 0x00, 0x00, 0x73, 0x65, 0x71, 0x75, 0x65, 0x6e, 0x74, 0x69,
  0x61, 0x6c, 0x5f, 0x31, 0x36, 0x2f, 0x64, 0x65, 0x6e, 0x73, 0x65, 0x5f,
  0x36, 0x31, 0x2f, 0x4d, 0x61, 0x74, 0x4d, 0x75, 0x6c, 0x3b, 0x73, 0x65,
  0x71, 0x75, 0x65, 0x6e, 0x74, 0x69, 0x61, 0x6c, 0x5f, 0x31, 0x36, 0x2f,
  0x64, 0x65, 0x6e, 0x73, 0x65, 0x5f, 0x36, 0x31, 0x2f, 0x52, 0x65, 0x6c,
  0x75, 0x3b, 0x73, 0x65, 0x71, 0x75, 0x65, 0x6e, 0x74, 0x69, 0x61, 0x6c,
  0x5f, 0x31, 0x36, 0x2f, 0x64, 0x65, 0x6e, 0x73, 0x65, 0x5f, 0x36, 0x31,
  0x2f, 0x42, 0x69, 0x61, 0x73, 0x41, 0x64, 0x64, 0x00, 0x00, 0x00, 0x00,
  0x02, 0x00, 0x00, 0x00, 0x01, 0x00, 0x00, 0x00, 0x10, 0x00, 0x00, 0x00,
  0x38, 0xfc, 0xff, 0xff, 0x18, 0x00, 0x00, 0x00, 0x20, 0x00, 0x00, 0x00,
  0x40, 0x00, 0x00, 0x00, 0x0a, 0x00, 0x00, 0x00, 0x00, 0x00, 0x00, 0x09,
  0x94, 0x00, 0x00, 0x00, 0x02, 0x00, 0x00, 0x00, 0xff, 0xff, 0xff, 0xff,
  0x80, 0x00, 0x00, 0x00, 0x24, 0xfc, 0xff, 0xff, 0x08, 0x00, 0x00, 0x00,
  0x14, 0x00, 0x00, 0x00, 0x01, 0x00, 0x00, 0x00, 0x80, 0xff, 0xff, 0xff,
  0xff, 0xff, 0xff, 0xff, 0x00, 0x00, 0x00, 0x00, 0x01, 0x00, 0x00, 0x00,
  0xbb, 0x26, 0x58, 0x3e, 0x58, 0x00, 0x00, 0x00, 0x73, 0x65, 0x71, 0x75,
  0x65, 0x6e, 0x74, 0x69, 0x61, 0x6c, 0x5f, 0x31, 0x36, 0x2f, 0x64, 0x65,
  0x6e, 0x73, 0x65, 0x5f, 0x36, 0x30, 0x2f, 0x4d, 0x61, 0x74, 0x4d, 0x75,
  0x6c, 0x3b, 0x73, 0x65, 0x71, 0x75, 0x65, 0x6e, 0x74, 0x69, 0x61, 0x6c,
  0x5f, 0x31, 0x36, 0x2f, 0x64, 0x65, 0x6e, 0x73, 0x65, 0x5f, 0x36, 0x30,
  0x2f, 0x52, 0x65, 0x6c, 0x75, 0x3b, 0x73, 0x65, 0x71, 0x75, 0x65, 0x6e,
  0x74, 0x69, 0x61, 0x6c, 0x5f, 0x31, 0x36, 0x2f, 0x64, 0x65, 0x6e, 0x73,
  0x65, 0x5f, 0x36, 0x30, 0x2f, 0x42, 0x69, 0x61, 0x73, 0x41, 0x64, 0x64,
  0x00, 0x00, 0x00, 0x00, 0x02, 0x00, 0x00, 0x00, 0x01, 0x00, 0x00, 0x00,
  0x80, 0x00, 0x00, 0x00, 0x66, 0xfd, 0xff, 0xff, 0x14, 0x00, 0x00, 0x00,
  0x34, 0x00, 0x00, 0x00, 0x09, 0x00, 0x00, 0x00, 0x00, 0x00, 0x00, 0x02,
  0x3c, 0x00, 0x00, 0x00, 0xcc, 0xfc, 0xff, 0xff, 0x08, 0x00, 0x00, 0x00,
  0x14, 0x00, 0x00, 0x00, 0x01, 0x00, 0x00, 0x00, 0x00, 0x00, 0x00, 0x00,
  0x00, 0x00, 0x00, 0x00, 0x00, 0x00, 0x00, 0x00, 0x01, 0x00, 0x00, 0x00,
  0x60, 0xe4, 0x85, 0x3b, 0x0d, 0x00, 0x00, 0x00, 0x64, 0x65, 0x6e, 0x73,
  0x65, 0x5f, 0x36, 0x33, 0x2f, 0x62, 0x69, 0x61, 0x73, 0x00, 0x00, 0x00,
  0x01, 0x00, 0x00, 0x00, 0x01, 0x00, 0x00, 0x00, 0xbe, 0xfd, 0xff, 0xff,
  0x14, 0x00, 0x00, 0x00, 0x30, 0x00, 0x00, 0x00, 0x08, 0x00, 0x00, 0x00,
  0x00, 0x00, 0x00, 0x09, 0x48, 0x00, 0x00, 0x00, 0x24, 0xfd, 0xff, 0xff,
  0x08, 0x00, 0x00, 0x00, 0x10, 0x00, 0x00, 0x00, 0x01, 0x00, 0x00, 0x00,
  0x00, 0x00, 0x00, 0x00, 0x00, 0x00, 0x00, 0x00, 0x01, 0x00, 0x00, 0x00,
  0xcc, 0x07, 0xc9, 0x3b, 0x1d, 0x00, 0x00, 0x00, 0x73, 0x65, 0x71, 0x75,
  0x65, 0x6e, 0x74, 0x69, 0x61, 0x6c, 0x5f, 0x31, 0x36, 0x2f, 0x64, 0x65,
  0x6e, 0x73, 0x65, 0x5f, 0x36, 0x33, 0x2f, 0x4d, 0x61, 0x74, 0x4d, 0x75,
  0x6c, 0x00, 0x00, 0x00, 0x02, 0x00, 0x00, 0x00, 0x01, 0x00, 0x00, 0x00,
  0x08, 0x00, 0x00, 0x00, 0x26, 0xfe, 0xff, 0xff, 0x14, 0x00, 0x00, 0x00,
  0x34, 0x00, 0x00, 0x00, 0x07, 0x00, 0x00, 0x00, 0x00, 0x00, 0x00, 0x02,
  0x3c, 0x00, 0x00, 0x00, 0x8c, 0xfd, 0xff, 0xff, 0x08, 0x00, 0x00, 0x00,
  0x14, 0x00, 0x00, 0x00, 0x01, 0x00, 0x00, 0x00, 0x00, 0x00, 0x00, 0x00,
  0x00, 0x00, 0x00, 0x00, 0x00, 0x00, 0x00, 0x00, 0x01, 0x00, 0x00, 0x00,
  0xfc, 0xd3, 0xdb, 0x3a, 0x0d, 0x00, 0x00, 0x00, 0x64, 0x65, 0x6e, 0x73,
  0x65, 0x5f, 0x36, 0x32, 0x2f, 0x62, 0x69, 0x61, 0x73, 0x00, 0x00, 0x00,
  0x01, 0x00, 0x00, 0x00, 0x08, 0x00, 0x00, 0x00, 0x7e, 0xfe, 0xff, 0xff,
  0x14, 0x00, 0x00, 0x00, 0x30, 0x00, 0x00, 0x00, 0x06, 0x00, 0x00, 0x00,
  0x00, 0x00, 0x00, 0x09, 0x48, 0x00, 0x00, 0x00, 0xe4, 0xfd, 0xff, 0xff,
  0x08, 0x00, 0x00, 0x00, 0x10, 0x00, 0x00, 0x00, 0x01, 0x00, 0x00, 0x00,
  0x00, 0x00, 0x00, 0x00, 0x00, 0x00, 0x00, 0x00, 0x01, 0x00, 0x00, 0x00,
  0x39, 0x64, 0x97, 0x3b, 0x1d, 0x00, 0x00, 0x00, 0x73, 0x65, 0x71, 0x75,
  0x65, 0x6e, 0x74, 0x69, 0x61, 0x6c, 0x5f, 0x31, 0x36, 0x2f, 0x64, 0x65,
  0x6e, 0x73, 0x65, 0x5f, 0x36, 0x32, 0x2f, 0x4d, 0x61, 0x74, 0x4d, 0x75,
  0x6c, 0x00, 0x00, 0x00, 0x02, 0x00, 0x00, 0x00, 0x08, 0x00, 0x00, 0x00,
  0x10, 0x00, 0x00, 0x00, 0xe6, 0xfe, 0xff, 0xff, 0x14, 0x00, 0x00, 0x00,
  0x34, 0x00, 0x00, 0x00, 0x05, 0x00, 0x00, 0x00, 0x00, 0x00, 0x00, 0x02,
  0x3c, 0x00, 0x00, 0x00, 0x4c, 0xfe, 0xff, 0xff, 0x08, 0x00, 0x00, 0x00,
  0x14, 0x00, 0x00, 0x00, 0x01, 0x00, 0x00, 0x00, 0x00, 0x00, 0x00, 0x00,
  0x00, 0x00, 0x00, 0x00, 0x00, 0x00, 0x00, 0x00, 0x01, 0x00, 0x00, 0x00,
  0x7d, 0xd1, 0xa7, 0x3a, 0x0d, 0x00, 0x00, 0x00, 0x64, 0x65, 0x6e, 0x73,
  0x65, 0x5f, 0x36, 0x31, 0x2f, 0x62, 0x69, 0x61, 0x73, 0x00, 0x00, 0x00,
  0x01, 0x00, 0x00, 0x00, 0x10, 0x00, 0x00, 0x00, 0x3e, 0xff, 0xff, 0xff,
  0x14, 0x00, 0x00, 0x00, 0x30, 0x00, 0x00, 0x00, 0x04, 0x00, 0x00, 0x00,
  0x00, 0x00, 0x00, 0x09, 0x48, 0x00, 0x00, 0x00, 0xa4, 0xfe, 0xff, 0xff,
  0x08, 0x00, 0x00, 0x00, 0x10, 0x00, 0x00, 0x00, 0x01, 0x00, 0x00, 0x00,
  0x00, 0x00, 0x00, 0x00, 0x00, 0x00, 0x00, 0x00, 0x01, 0x00, 0x00, 0x00,
  0xae, 0xc1, 0xc6, 0x3b, 0x1d, 0x00, 0x00, 0x00, 0x73, 0x65, 0x71, 0x75,
  0x65, 0x6e, 0x74, 0x69, 0x61, 0x6c, 0x5f, 0x31, 0x36, 0x2f, 0x64, 0x65,
  0x6e, 0x73, 0x65, 0x5f, 0x36, 0x31, 0x2f, 0x4d, 0x61, 0x74, 0x4d, 0x75,
  0x6c, 0x00, 0x00, 0x00, 0x02, 0x00, 0x00, 0x00, 0x10, 0x00, 0x00, 0x00,
  0x80, 0x00, 0x00, 0x00, 0xa6, 0xff, 0xff, 0xff, 0x14, 0x00, 0x00, 0x00,
  0x34, 0x00, 0x00, 0x00, 0x03, 0x00, 0x00, 0x00, 0x00, 0x00, 0x00, 0x02,
  0x3c, 0x00, 0x00, 0x00, 0x0c, 0xff, 0xff, 0xff, 0x08, 0x00, 0x00, 0x00,
  0x14, 0x00, 0x00, 0x00, 0x01, 0x00, 0x00, 0x00, 0x00, 0x00, 0x00, 0x00,
  0x00, 0x00, 0x00, 0x00, 0x00, 0x00, 0x00, 0x00, 0x01, 0x00, 0x00, 0x00,
  0xdf, 0xa0, 0xe7, 0x3a, 0x0d, 0x00, 0x00, 0x00, 0x64, 0x65, 0x6e, 0x73,
  0x65, 0x5f, 0x36, 0x30, 0x2f, 0x62, 0x69, 0x61, 0x73, 0x00, 0x00, 0x00,
  0x01, 0x00, 0x00, 0x00, 0x80, 0x00, 0x00, 0x00, 0x00, 0x00, 0x0e, 0x00,
  0x18, 0x00, 0x14, 0x00, 0x13, 0x00, 0x0c, 0x00, 0x08, 0x00, 0x04, 0x00,
  0x0e, 0x00, 0x00, 0x00, 0x14, 0x00, 0x00, 0x00, 0x30, 0x00, 0x00, 0x00,
  0x02, 0x00, 0x00, 0x00, 0x00, 0x00, 0x00, 0x09, 0x48, 0x00, 0x00, 0x00,
  0x74, 0xff, 0xff, 0xff, 0x08, 0x00, 0x00, 0x00, 0x10, 0x00, 0x00, 0x00,
  0x01, 0x00, 0x00, 0x00, 0x00, 0x00, 0x00, 0x00, 0x00, 0x00, 0x00, 0x00,
  0x01, 0x00, 0x00, 0x00, 0xc1, 0xa9, 0x13, 0x3c, 0x1d, 0x00, 0x00, 0x00,
  0x73, 0x65, 0x71, 0x75, 0x65, 0x6e, 0x74, 0x69, 0x61, 0x6c, 0x5f, 0x31,
  0x36, 0x2f, 0x64, 0x65, 0x6e, 0x73, 0x65, 0x5f, 0x36, 0x30, 0x2f, 0x4d,
  0x61, 0x74, 0x4d, 0x75, 0x6c, 0x00, 0x00, 0x00, 0x02, 0x00, 0x00, 0x00,
  0x80, 0x00, 0x00, 0x00, 0x24, 0x00, 0x00, 0x00, 0x14, 0x00, 0x1c, 0x00,
  0x18, 0x00, 0x17, 0x00, 0x10, 0x00, 0x0c, 0x00, 0x08, 0x00, 0x00, 0x00,
  0x00, 0x00, 0x04, 0x00, 0x14, 0x00, 0x00, 0x00, 0x18, 0x00, 0x00, 0x00,
  0x2c, 0x00, 0x00, 0x00, 0x48, 0x00, 0x00, 0x00, 0x01, 0x00, 0x00, 0x00,
  0x00, 0x00, 0x00, 0x09, 0x64, 0x00, 0x00, 0x00, 0x02, 0x00, 0x00, 0x00,
  0xff, 0xff, 0xff, 0xff, 0x24, 0x00, 0x00, 0x00, 0x0c, 0x00, 0x0c, 0x00,
  0x00, 0x00, 0x00, 0x00, 0x08, 0x00, 0x04, 0x00, 0x0c, 0x00, 0x00, 0x00,
  0x08, 0x00, 0x00, 0x00, 0x10, 0x00, 0x00, 0x00, 0x01, 0x00, 0x00, 0x00,
  0x05, 0x00, 0x00, 0x00, 0x00, 0x00, 0x00, 0x00, 0x01, 0x00, 0x00, 0x00,
  0xc9, 0xc8, 0x48, 0x3e, 0x20, 0x00, 0x00, 0x00, 0x73, 0x65, 0x72, 0x76,
  0x69, 0x6e, 0x67, 0x5f, 0x64, 0x65, 0x66, 0x61, 0x75, 0x6c, 0x74, 0x5f,
  0x64, 0x65, 0x6e, 0x73, 0x65, 0x5f, 0x36, 0x30, 0x5f, 0x69, 0x6e, 0x70,
  0x75, 0x74, 0x3a, 0x30, 0x00, 0x00, 0x00, 0x00, 0x02, 0x00, 0x00, 0x00,
  0x01, 0x00, 0x00, 0x00, 0x24, 0x00, 0x00, 0x00, 0x01, 0x00, 0x00, 0x00,
  0x10, 0x00, 0x00, 0x00, 0x0c, 0x00, 0x10, 0x00, 0x0f, 0x00, 0x00, 0x00,
  0x08, 0x00, 0x04, 0x00, 0x0c, 0x00, 0x00, 0x00, 0x09, 0x00, 0x00, 0x00,
  0x04, 0x00, 0x00, 0x00, 0x00, 0x00, 0x00, 0x09
};
unsigned int g_model_len = 9920;


int libtf_teju();

#ifdef __cplusplus
}
#endif

#endif // __LIBTF_H
